、 34411721
▁ 30618400
。 21406354
の 12574020
は 8448449
を 6654740
が 6290346
に 5384812
と 4614818
で 3922562
・ 2931349
) 2822995
や 2417302
( 2392668
」 1941748
, 1934922
: 1862391
から 1831665
. 1600595
し 1573885
「 1532011
です 1516302
する 1446179
も 1412018
年 1129256
s 1057247
では 1026308
1 1021066
した 956074
▁( 936421
ます 932865
には 930160
▁- 926667
な 922606
2 892437
します 847917
か 845234
として 813490
た 809613
▁「 792742
月 781866
- 771832
る 742337
▁この 733427
3 730613
日 715702
または 700446
この 697315
その 696068
? 682944
および 682022
して 665083
である 662133
て 631041
など 613967
された 599317
ス 583938
/ 581521
について 553569
▁また 526092
という 524267
への 495798
! 493524
▁. 489612
▁) 481547
4 481004
ました 475458
によって 475361
ています 471466
による 449695
り 441916
により 439341
しています 422090
している 421465
5 421203
い 420405
情報 407832
_ 407234
" 405635
] 404849
S 400133
人 394234
及び 393768
ト 393308
ている 386874
ア 385062
ので 379669
より 377728
しました 374712
に関する 360206
的な 359561
ク 357859
サービス 356165
される 349437
性 347628
10 346330
環境 344934
▁[ 342309
リ 336249
における 334238
つの 333921
こと 333817
化 333801
ら 331317
お 321740
ために 318239
などの 316997
的 315985
事業 315595
▁S 315104
そして 314711
方法 314462
C 313907
され 311758
大 311642
6 311517
データ 310602
機能 309854
において 308009
すべての 305694
D 303161
ことができます 302476
▁しかし 301066
まで 300235
本 299898
ため 292429
のために 292094
管理 291374
ラ 290851
システム 290003
G 289972
7 286992
であり 286987
にも 284873
があります 284664
B 284649
A 284615
できます 283903
されます 283241
等 282989
er 279000
ド 278656
く 278111
さ 277618
ル 275362
のための 275177
時間 273871
8 272932
▁」 271633
中 270673
されている 269807
できる 269563
日本 267395
M 267374
新しい 267067
へ 266643
技術 266371
水 265262
▁1 261865
▁これは 260673
ない 260286
▁2 257411
もの 253858
者 253727
することができます 253563
き 249249
国 246837
ように 245655
分 242721
多くの 241319
法 240535
との 240470
あなたの 239753
でも 238221
ファイル 237945
y 237889
9 237684
からの 237320
す 236244
一 235870
カ 235468
プログラム 235422
開発 235393
名 234522
つ 232926
活動 232776
ー 232061
み 230957
されています 230695
製品 229250
での 228273
タ 227464
F 227080
P 226985
T 226448
研究 224636
コ 223512
▁A 223315
それは 222148
ズ 221861
場合 220996
▁そして 220152
大学 218378
に対する 218372
▁P 218165
企業 217767
がある 216831
ロ 216227
また 215972
にある 215882
必要があります 215353
▁: 214934
e 213824
用 213360
ing 212586
って 211037
ナ 210710
マ 209719
だ 208757
シ 208044
V 207673
後 207576
ことを 207349
手 207296
▁C 204689
▁B 204156
力 203220
上 201859
▁3 201265
12 200208
▁その 199615
った 199236
使用 199135
▁" 199036
H 199019
他の 197678
20 197180
第 195243
時 194410
m 194074
う 193863
▁M 193308
数 193013
回 192775
▁F 192280
ブ 191650
地 191301
K 191084
ま 190377
設定 189981
約 189423
バ 189012
については 188282
W 187160
あなたは 186093
してください 186002
N 185634
al 184825
問題 184646
上の 183922
年に 183754
30 183750
高 183251
社会 182439
▁the 182205
私は 181597
山 181130
見 180641
E 179765
リー 179004
o 178396
とは 178295
グループ 178197
X 177933
ための 177882
でしょう 177776
各 177450
ダ 176760
レ 176410
▁of 175467
▁それは 175247
エ 174677
会 174402
イン 174371
ください 173919
それ 172003
ミ 171041
物 169661
に対して 168638
11 168532
的に 168369
利用 168006
d 167877
行 167693
点 167391
教育 167371
k 166790
t 165555
を使用して 165506
イ 165404
世界 164980
▁/ 164851
キ 164283
場合は 164164
計画 163732
ご 163542
金 163427
生 163072
国際 162811
評価 162436
不 162194
いた 161915
大きな 161860
状況 161351
ム 160971
c 160685
処理 160620
プロジェクト 160046
ジ 159929
バー 159822
ン 159470
様々な 159322
▁H 159281
ed 159162
地域 159064
これらの 158853
場所 158609
販売 158444
~ 158225
▁私は 157645
出 157636
非常に 157230
関係 157158
ビジネス 156206
▁E 155932
度 155787
内 155263
め 155123
オ 155109
投資 154671
変更 154489
新 154200
フ 154147
わ 153514
イベント 153499
n 152723
取引 152713
▁D 152242
等の 152206
市 151985
下 151651
さまざまな 150977
サイト 150908
を含む 150884
型 150673
アプリケーション 150513
com 150373
文化 150365
ある 150102
長 150039
デザイン 150031
経済 149999
▁T 149974
学 149900
p 149819
となる 149438
子 149178
を持つ 148955
ネ 148665
J 148570
▁さらに 148473
19 148452
人の 148367
ネットワーク 148210
』 147768
▁10 147767
方 147679
事 147301
▁to 147078
ことは 146846
になる 146790
会社 146700
すること 146233
R 146134
ニ 145928
プ 145604
デ 145425
▁– 145408
モデル 145300
田 145002
15 144524
先 144081
' 143996
in 143909
の中で 143792
コン 143378
います 143076
最も 142829
▁これらの 142478
ん 142196
部 142187
線 141948
前に 141836
でした 141706
する必要があります 141629
ソフトウェア 141495
ことができる 141438
するために 141364
いくつかの 141309
ゲーム 141137
のです 141067
センター 140715
市場 140568
エネルギー 140536
ません 140478
のある 140230
支援 139665
L 139639
目 139550
セ 139466
のみ 139286
調査 139081
よう 138733
ッ 138634
サ 138480
すると 138342
だけでなく 138102
▁G 137688
光 137604
▁本 137547
ツール 136947
いる 136256
あなたが 136024
色 135909
ビデオ 135343
b 134934
スト 134778
ウ 134672
日本の 134645
を行う 134498
それを 134252
▁4 134167
のか 134140
オプション 133965
ながら 133454
同 133251
があり 133188
結果 133021
i 132662
チ 132358
ユーザー 132336
所 132000
ビ 131586
前 131254
en 130557
重要な 130334
心 130317
▁R 130251
▁あなたは 129815
だった 129813
▁J 129657
ており 129458
▁I 129149
an 129012
Y 128826
▁and 128725
▁Windows 128627
外 128436
u 128147
道 128120
商品 128092
されました 128013
メ 128000
生産 127943
作業 127713
家 126186
を通じて 126146
設計 126039
パ 125125
対応 125060
時に 124762
プロセス 124727
になります 124684
リスク 124537
リスト 124471
条件 124042
書 124028
特に 123946
ページ 123934
させる 123529
体 123466
▁N 123298
上で 123240
車 122993
▁for 122881
面 122534
ことが 122291
株式会社 121950
川 121871
とともに 121826
& 120818
▁L 120343
モ 120257
ですが 120146
機 119851
気 119786
18 119492
ティ 118518
成長 118501
組織 118388
▁K 118328
サポート 118277
小 118094
島 117720
le 117631
中国 117629
自分の 117455
or 117271
分析 116986
主 116921
テ 116766
f 116489
とき 116173
海 116084
『 116066
場 115608
のような 114895
業務 114782
プラットフォーム 114702
接続 114681
写真 114588
これは 114055
ノ 113893
デバイス 113862
▁私たちは 113514
なら 113285
▁in 113066
にとって 112804
熱 112766
よりも 112489
じ 112393
ディ 112357
値 112254
無 112135
品 111900
内の 111875
on 111838
愛 111745
課題 111533
保護 111196
▁5 110877
リング 110669
画像 110595
ホテル 109802
多 109655
彼の 109365
g 109342
契約 109172
こ 109070
私の 109011
円 108979
施設 108748
よ 108674
et 108647
ソリューション 108614
効果 108595
ば 108570
製造 108517
さらに 108497
れ 108380
生活 108160
経験 108052
元 108047
16 108034
別の 107880
関連 107822
カード 107642
ポイント 107568
構造 107238
したい 107112
▁W 107083
私たちは 107077
例 107054
報告 106998
新たな 106955
だけ 106893
年の 106878
材料 106668
発 106539
ような 106444
州 106440
el 106431
店 106351
▁第 106264
特定の 106218
私たちの 106063
米国 106038
社 105995
したり 105989
良い 105904
ね 105902
む 105795
アクセス 105333
ことで 105297
産業 105080
原 104906
ター 104905
異なる 104784
なかった 104746
コード 104743
登録 104714
確認 104608
▁日本 104361
期 103955
機関 103794
東京 103649
ボ 103502
感 103428
同じ 103384
ベ 103259
今 103187
h 103165
協力 102988
a 102964
ていた 102906
Windows 102786
経営 102275
間 102258
っている 102192
又は 102075
】 102022
▁7 101879
ツ 101729
神 101711
アプリ 101644
価格 101602
高い 101373
マン 101344
人が 101332
しない 101313
コース 101279
月に 101233
号 101041
するための 101040
次の 100848
を使って 100793
させ 100503
ハ 100371
え 100355
しており 100298
音楽 100101
のように 100077
あ 100016
▁あなたが 99929
にて 99694
風 99242
版 98768
全 98548
行動 98234
グ 98185
▁a 98175
作品 98029
内容 97974
コンテンツ 97842
することで 97783
14 97764
着 97698
図 97378
x 97177
... 97124
24 97097
ar 97065
政策 97027
しております 96952
日に 96938
万 96799
状態 96776
旅行 96719
25 96455
入 96448
ent 96151
ましょう 96103
られた 96027
頭 95811
表示 95638
以上の 95473
石 95402
入力 95333
キー 95256
ものです 95242
音 95209
語 95142
テスト 95075
小さな 95072
木 95070
そのような 94967
かつ 94908
当社の 94867
ではない 94859
なく 94798
以下の 94747
通信 94447
現在 94422
適切な 94351
中の 94241
100 94091
r 94026
ではなく 94010
広告 93982
東 93874
当社 93842
リンク 93796
率 93767
都市 93756
選択 93718
安全 93645
非 93636
▁V 93630
ic 93618
ず 93613
チーム 93111
[ 93031
アン 92801
それが 92724
レベル 92635
通 92571
船 92470
以下 92385
17 92376
素晴らしい 92347
式 92274
ほど 92020
ラー 92019
何 91754
v 91729
実行 91700
ur 91607
ち 91578
いたします 91535
立 91387
13 91098
ブランド 91008
▁あなたの 90863
三 90733
け 90608
50 90585
んだ 90513
となります 90431
味 90373
変化 90369
操作 90321
ガ 90284
会議 90266
能力 90213
ロー 90141
サイズ 90087
体制 89956
文 89663
年間 89620
簡単に 89615
よく 89454
シー 89379
改善 89188
たい 89109
その他の 89083
体験 88814
科学 88709
利益 88656
以上 88463
室 88424
必要 88415
っ 88264
自然 88116
th 87838
仕事 87775
U 87493
理解 87450
食 87371
機器 87165
l 87027
制度 86951
要素 86919
w 86724
形 86699
O 86694
リン 86684
医療 86667
アカウント 86630
南 86507
ではありません 86456
it 86407
提供 86338
言語 86313
プロ 86293
re 86093
戦略 86080
ヤ 86074
試験 85960
年度 85957
可能な 85904
発表 85886
▁当社は 85873
料理 85775
40 85764
特別な 85754
参加 85695
I 85562
層 85506
口 85492
ヒ 85465
県 85454
作成 85381
治療 85324
彼らは 85235
電子 85145
健康 85069
部門 84973
人は 84939
Z 84914
公開 84708
▁したがって 84609
常に 84572
すぐに 84544
基準 84534
メッセージ 84523
中に 84483
後に 84426
お客様の 84392
していた 84137
を通して 84060
再 84053
制御 84044
映画 84024
といった 83764
最大 83345
開始 83311
彼は 83243
us 83230
責任 83215
認識 83196
あらゆる 83191
カメラ 83157
電 83069
予定 83043
られる 82896
家族 82893
ですか 82875
購入 82852
女性 82791
ところ 82761
▁12 82648
構成 82586
天 82369
海外 82362
美しい 82329
委員会 82268
理由 82234
インターネット 82214
表 82141
期間 82045
できない 81944
オンライン 81921
と思います 81840
町 81721
の場合 81675
ファ 81554
決定 81554
野 81542
更新 81510
向け 81440
ライン 81404
薬 81392
を選択します 81316
てください 81195
装置 81175
デジタル 81163
ファイルを 81138
ソ 80949
部分 80948
保存 80946
取得 80827
ことです 80797
低 80792
▁なお 80722
はありません 80699
通知 80635
目標 80561
器 80528
回復 80499
価値 80438
顧客 80264
説明 80135
カー 80087
合 80067
彼らの 80026
検索 79977
▁6 79856
の開発 79834
▁8 79821
セキュリティ 79791
▁【 79788
複数の 79641
の使用 79631
とする 79557
いい 79480
番号 79426
必要な 79272
調整 79258
話 79153
ときに 79081
グローバル 79071
コスト 79026
準備 79024
最高の 78964
機会 78912
運営 78877
当該 78850
ピ 78802
領域 78644
ly 78608
台 78568
量 78551
拡大 78498
あるいは 78385
ット 78193
平 78074
文字 77946
ation 77901
export 77816
変換 77779
ポ 77740
せ 77700
実 77697
来 77679
21 77672
フィ 77664
ことに 77609
▁すべての 77427
政府 77408
認証 77344
出力 77171
当 77084
PC 77030
送信 77028
分野 77002
動画 76865
コンピュータ 76818
ック 76645
メール 76600
IT 76577
タイ 76495
氏 76442
ガイド 76332
バス 76276
条 76097
額 76068
観光 76067
少し 75955
設備 75875
対象 75825
花 75653
白 75627
Q 75613
モード 75611
ドル 75575
ならば 75562
が必要です 75505
すべて 75402
別 75359
最初の 75330
作 75244
▁その後 75220
▁11 75137
te 75107
紹介 75096
用の 75094
銀行 75092
空間 75072
▁彼らは 74946
賞 74941
電力 74927
運用 74909
移動 74888
たり 74867
とても 74727
になった 74626
対策 74556
▁ただし 74540
品質 74506
テーブル 74446
ザ 74341
展開 74280
を見 74264
制限 74198
系 74190
計算 74184
タイプ 74075
サーバー 74062
空 73903
パートナー 73858
和 73838
実施 73818
省 73788
業界 73787
スペース 73714
▁※ 73558
資産 73555
at 73212
々 73157
▁In 73147
ガス 72811
優れた 72666
統合 72639
メディア 72558
増 72463
流 72459
ペ 72392
はずです 72226
データを 72151
アップ 72119
かどうか 72049
オン 71999
検査 71946
メニュー 71934
重 71881
個人 71880
項目 71834
直 71723
区 71653
足 71532
▁2021 71522
レポート 71447
ライ 71381
レン 71358
編集 71224
研究所 71154
有 71062
資料 71061
23 71012
であった 70985
北 70981
あります 70929
そう 70765
サー 70740
食品 70736
測定 70711
考え 70709
ケ 70680
▁19 70664
エン 70655
を使用する 70584
業 70566
目的 70492
ダウンロード 70413
01 70401
28 70318
素材 70316
製品の 70204
いて 70024
エリア 69826
▁2019 69759
表現 69678
を提供します 69653
株式 69628
戦 69596
平成 69586
バックアップ 69490
画面 69299
身 69256
® 69207
機械 69164
追加 69156
期待 68907
び 68900
駅 68870
のため 68782
am 68759
00 68625
ていく 68587
パー 68580
可能性があります 68543
予約 68480
27 68438
となりました 68416
費用 68345
アジア 68289
国内 68236
▁ア 68224
細胞 68220
者の 68147
ること 68127
となり 68067
co 68039
位 68032
アート 68019
役 68009
カル 67854
ion 67849
これ 67822
影響 67813
ゴ 67789
マー 67735
ギ 67694
スポーツ 67690
する方法 67680
ch 67656
ていない 67609
民 67504
資金 67410
正 67288
どのような 67268
ディスク 67176
自動車 67146
紙 67066
ケース 67051
に対し 66971
ボタン 66958
レストラン 66865
そ 66861
学生 66804
根 66727
コミュニケーション 66718
質問 66654
公 66642
再生 66578
ジェ 66560
▁Japan 66511
22 66397
を行い 66373
▁新しい 66293
場合には 66278
Web 66255
▁例えば 66222
撮影 66214
村 66185
れば 66142
ぎ 66103
ファイルの 66055
を受け 66040
▁O 66022
強化 65903
フル 65874
31 65855
美 65823
un 65796
学校 65795
パフォーマンス 65785
イメージ 65739
26 65705
テキスト 65692
まだ 65679
金融 65678
定 65573
ro 65567
ビュー 65540
とも 65480
強い 65479
▁そのような 65437
特徴 65396
全ての 65394
についての 65374
; 65287
est 65278
開催 65225
かもしれません 65180
っています 65178
▁彼は 65118
チェック 65047
オープン 64987
▁お問い合わせ 64920
んで 64872
情報を 64867
ダー 64851
〜 64815
一覧 64803
さん 64761
によると 64738
ia 64730
半 64659
z 64577
西 64535
= 64514
の設定 64408
曲 64390
ドライブ 64369
向上 64330
世界の 64286
二 64238
在 64226
60 64196
人間 64139
実験 64128
ID 64076
▁X 64071
病 64060
方法で 64050
ております 64043
独自の 64034
es 63988
なる 63960
付け 63960
可能 63933
間の 63909
に基づく 63876
は非常に 63870
動 63862
ポリシー 63857
スター 63852
取り 63844
保証 63810
規制 63727
本当に 63655
ワ 63601
を提供する 63562
▁& 63549
建設 63463
電気 63417
それぞれ 63343
セット 63336
成 63336
アイテム 63304
▁2018 63298
宇宙 63274
▁2000 63244
スタイル 63232
IP 63179
▁2020 63121
直接 63104
予測 63085
億 63071
私 62997
ブル 62995
に基づいて 62991
となった 62927
工場 62899
知 62858
現在の 62815
パッケージ 62780
メーカー 62765
植物 62709
でき 62668
学習 62661
解析 62656
解決 62523
を持っています 62519
バージョン 62481
死 62470
英語 62454
だろう 62419
クラス 62314
するには 62300
方針 62289
それら 62242
部品 62160
権 62150
土 62098
質 62095
安 62082
代 62045
権利 62040
▁9 62028
ホ 62009
アメリカ 61994
員 61994
特別 61989
火 61975
翻訳 61903
すれば 61864
もあります 61599
テレビ 61588
に関して 61587
対 61399
資源 61305
xhtml 61228
マーケティング 61040
付 60949
次 60949
▁各 60902
加工 60804
法人 60751
未 60745
収益 60735
温度 60730
リリース 60722
推進 60716
地球 60699
▁Re 60686
られ 60651
文書 60610
企業の 60598
必要がある 60560
に応じて 60520
完全に 60479
てきた 60478
il 60455
団体 60309
▁それ 60252
IC 60246
産 60236
類 60164
80 60108
テクノロジー 60064
内で 59984
ゼ 59961
事項 59912
注文 59893
費 59862
知識 59858
iPhone 59751
ラン 59738
タスク 59670
種 59650
理 59615
トン 59600
料金 59592
記録 59560
フリー 59545
億円 59501
になり 59462
エラー 59394
障害 59394
国の 59340
の一部 59335
どんな 59302
▁Q 59291
不動産 59288
街 59260
id 59256
▁今 59210
日の 59183
ファン 59180
営業 59169
ろ 59101
日本語 59086
規則 59063
検討 59051
が表示されます 59008
CO 59003
ると 58860
la 58830
米 58805
パス 58686
サン 58649
供給 58594
▁特に 58542
従業員 58512
テーマ 58497
ツアー 58491
ブロック 58485
残 58467
ニュース 58447
▁English 58408
館 58387
自 58352
要因 58317
後の 58314
▁1. 58302
自動 58291
全体の 58195
li 58168
ジャ 58167
行為 58138
王 58122
動作 58112
プラン 58013
減 57965
と一緒に 57936
することができる 57889
教授 57835
専門 57787
トリ 57771
発展 57753
ut 57687
提案 57657
としての 57656
注 57635
無料 57517
29 57510
手順 57485
▁現在 57452
種類の 57373
展示 57340
パネル 57316
肉 57189
議論 57184
何か 57157
製 57131
ぶ 57097
記事 57089
のうち 57078
削除 57059
とした 57028
城 57000
パン 56962
すべき 56869
コントロール 56811
レー 56775
シリーズ 56742
者は 56734
適用 56677
総 56623
開示 56614
楽 56609
に基づき 56594
ロック 56574
データベース 56538
コピー 56531
▁お 56529
MP 56437
防止 56425
ate 56376
へと 56362
フェ 56300
@ 56267
油 56206
ad 56196
トラック 56177
株 56142
標準 56137
アル 56135
局 56130
空港 56058
近 56058
運動 56051
化学 56001
の高い 55989
しく 55978
フォーム 55971
それらの 55967
70 55952
少なくとも 55923
しか 55919
アーティスト 55794
感じ 55792
取り組み 55775
前の 55748
45 55643
古い 55630
法律 55604
導入 55590
トレーニング 55586
ハイ 55501
においては 55454
連携 55447
自己 55435
時代 55352
観 55344
▁* 55338
それぞれの 55337
クライアント 55321
と共に 55260
交流 55256
の中に 55248
波 55209
手法 55177
親 55170
もっと 55090
このような 55087
しません 55079
キャ 55070
悪 55046
and 55033
素 55020
方法は 54819
いました 54815
を持っている 54746
共有 54744
引 54742
通り 54726
制作 54715
活用 54656
mo 54645
渡 54644
▁20 54632
様 54630
64 54617
利 54605
御 54597
を提供し 54579
ウェブサイト 54566
▁そのため 54565
星 54561
成功 54514
取 54501
あり 54497
ナー 54443
意識 54436
要求 54413
長い 54380
その後 54373
インストール 54356
▁これ 54300
ボックス 54235
の間に 54203
どの 54201
外部 54142
論 54128
超 54097
拠点 54062
氏は 53979
映像 53976
モジュール 53950
▁The 53934
芸術 53932
▁私たちの 53899
MA 53861
核 53859
どのように 53850
▁たとえば 53844
ap 53817
▁f 53777
全体 53777
ジュ 53739
リア 53732
ルーム 53708
▁is 53644
官 53642
塩 53571
総合 53555
500 53539
の向上 53534
▁m 53498
エンジン 53488
会員 53484
橋 53456
▁No 53436
▁] 53318
地域の 53317
電話 53314
財務 53312
一般 53306
とその 53273
判断 53256
百万円 53240
▁2. 53237
指定 53195
の影響 53151
終了 53105
印刷 53096
にあります 53087
▁2017 53086
歴史 53067
200 53055
▁that 53050
最高 53047
ra 53024
48 53019
ロン 53003
固定 52996
ment 52912
▁18 52865
コミュニティ 52838
私が 52838
拡張 52796
していない 52783
” 52763
されて 52736
例えば 52684
急 52664
相 52663
ry 52629
血 52616
ひ 52580
路 52574
剤 52527
監査 52470
シュ 52452
比 52452
コンピューター 52444
高速 52420
スタッフ 52413
ライセンス 52407
のない 52397
レイ 52333
なければならない 52303
個人情報 52271
かった 52258
時の 52246
フィールド 52244
▁次に 52230
だけで 52213
お客様 52211
▁これにより 52160
▁もし 52127
されていない 52110
ユーザ 52081
将来 52070
黒 52070
アップデート 52027
もう 52020
初めて 51964
重要 51879
投稿 51867
04 51865
内に 51827
夜 51811
修正 51780
フォルダ 51745
各種 51744
金属 51740
歳 51708
があった 51706
ごとに 51705
レビュー 51698
許可 51670
ウィンドウ 51664
実際に 51597
するか 51591
メント 51582
▁このような 51550
株主 51545
ど 51486
+ 51465
リソース 51457
母 51456
データの 51415
団 51393
特 51393
過 51387
可能性 51377
国家 51314
両 51287
90 51198
されており 51197
交換 51185
韓国 51154
初 51148
メンバー 51130
明 51119
▁p 51115
朝 51109
たち 51088
極 51052
の問題 51028
パスワード 51002
今後 50995
▁私の 50987
▁13 50909
していく 50879
以外の 50843
ふ 50796
フォーマット 50788
定義 50751
赤 50742
▁製品 50718
需要 50624
一般的な 50605
既存の 50558
した場合 50555
をお 50547
▁Pro 50543
ig 50541
金額 50535
節 50506
AL 50498
j 50493
取締役 50465
中央 50459
02 50404
存在 50403
すでに 50384
としても 50352
リーダー 50350
物質 50330
段階 50318
真 50292
研究者 50275
ステップ 50259
それらを 50248
セッション 50227
第一 50226
を見る 50205
意味 50176
ーション 50158
▁14 50155
詳細 50150
平均 50139
ニー 50122
ity 50110
言葉 50104
OS 50096
ex 50070
平和 50064
反応 50061
ルール 50051
しながら 50037
労働 50021
がない 49969
ことがあります 49967
手段 49927
その他 49902
オフィス 49869
の変更 49805
ポート 49777
監督 49775
広 49769
▁ステップ 49758
最新の 49624
名前 49615
階 49586
絵 49579
店舗 49572
配信 49551
ぐ 49524
できません 49516
世 49499
消費者 49482
発生 49428
変 49399
PDF 49357
ma 49354
開 49352
正しい 49343
0 49337
子供 49336
運転 49330
ac 49320
um 49319
タン 49306
範囲 49298
弊社 49255
外国人 49234
引き 49227
上に 49221
解 49219
per 49188
なければなりません 49171
電源 49141
フロー 49132
付き 49101
することを 49075
発見 49063
特性 49025
ライト 49018
監視 48991
軍 48966
▁15 48919
▁De 48896
攻撃 48880
左 48867
ング 48863
ックス 48850
を有する 48843
患者 48838
ge 48818
主に 48782
位置 48742
異 48694
▁2016 48668
トップ 48653
シート 48636
ざ 48593
05 48586
に向けて 48552
ほか 48541
長期 48528
ワーク 48523
屋 48488
に加え 48463
思い 48433
欧州 48409
引き続き 48371
研究開発 48357
パターン 48326
研修 48324
カラー 48314
機構 48267
タイム 48209
千 48208
特定 48207
を作る 48203
セクション 48196
ist 48193
通常の 48192
プレイ 48190
バイ 48169
信頼 48161
動き 48155
てきました 48134
受 48106
乗 48080
ライブ 48071
創 48036
▁Web 48034
までの 47868
他 47842
オーディオ 47831
起動 47807
あなた 47792
章 47786
集 47735
スキル 47705
▁3000 47701
幅広い 47696
削減 47684
魚 47665
連結 47644
新規 47640
ケーブル 47638
ダイ 47632
ロード 47594
の結果 47591
論文 47583
松 47567
四半期 47558
基盤 47553
込む 47540
)」 47520
任意の 47435
努力 47404
商 47393
右 47364
建築 47362
アイデア 47350
かもしれない 47349
AI 47347
を行います 47336
コレクション 47278
になって 47223
保険 47221
st 47213
▁re 47180
より多くの 47163
上昇 47131
人生 47105
出す 47094
彼 47081
毎日 47032
アプローチ 47014
ag 46995
世界中の 46990
停止 46986
者が 46921
公式 46911
年から 46898
▁16 46842
に必要な 46833
32 46826
トラ 46801
下さい 46752
込み 46718
計 46700
ユーザーが 46693
採用 46683
現 46670
ファイル拡張子 46643
▁© 46639
消費 46634
答え 46618
になっている 46566
lo 46552
寺 46535
▁大 46534
性能 46533
これを 46510
に加えて 46481
なり 46475
時計 46463
バック 46456
注意 46422
テンプレート 46400
措置 46392
ることができます 46375
スマート 46373
お金 46347
言う 46326
を与える 46316
の作成 46315
場合があります 46290
コンポーネント 46259
の種類 46253
申請 46234
井 46218
することは 46213
ヨーロッパ 46212
to 46199
人々 46192
訪問 46189
国連 46183
AT 46162
と同じ 46132
ことができ 46100
に向けた 46078
と呼ばれる 46068
月の 46063
に従って 46057
実際の 46057
馬 46030
お客様に 46004
復元 45991
▁平成 45980
モバイル 45979
自分 45973
するため 45948
人々の 45944
パラメータ 45943
ri 45940
の内容 45926
08 45884
09 45880
協会 45872
ガラス 45847
端 45844
であること 45838
としては 45831
ソン 45822
効率 45818
アドレス 45813
ビル 45795
システムの 45767
RE 45757
夢 45729
の増加 45725
ベース 45724
クラウド 45689
信号 45677
強 45663
税 45643
あなたに 45642
▁3. 45637
▁you 45631
れる 45627
▁U 45613
参照 45571
輸出 45559
基本 45552
ていました 45544
参加者 45492
した後 45416
グループの 45409
任 45403
を中心に 45402
切り 45362
脳 45352
テン 45347
どう 45344
ang 45341
up 45336
PS 45324
我々は 45311
部屋 45308
キャッシュ 45301
▁我々は 45268
診断 45244
ためには 45204
ガー 45204
もしくは 45203
の上に 45202
交通 45182
企画 45166
の歴史 45153
立ち 45152
える 45104
法令 45071
ve 45064
コメント 45024
負 45012
im 44993
仕様 44987
動物 44976
サンプル 44947
人々は 44861
インド 44827
反 44826
大会 44816
形式 44816
ワイン 44810
科 44785
複雑な 44784
座 44771
メモリ 44746
▁東京 44742
症 44720
よい 44696
まず 44679
のですが 44676
命 44676
ダウン 44663
となっています 44658
輸送 44626
ありません 44621
ニュー 44597
なので 44578
を超える 44578
加 44575
差 44564
Google 44542
セル 44498
災害 44483
ときは 44477
ニーズ 44463
料 44462
▁日本語 44420
一緒に 44406
国立 44403
モン 44387
青 44375
中国の 44342
を提供しています 44339
列 44323
鉄 44321
as 44297
界 44266
チケット 44255
男 44247
達 44236
ボード 44206
雨 44198
を作成する 44188
最初に 44154
構築 44136
▁be 44130
ザー 44126
クラブ 44098
人気 44092
男性 44052
最大の 44022
友人 44005
アクション 43990
角 43971
end 43915
人材 43892
▁on 43884
se 43852
必ず 43851
岩 43820
を取り 43809
マーク 43809
記 43782
実績 43760
自由 43755
hi 43747
住宅 43742
速度 43735
ine 43716
横 43709
シン 43641
配置 43621
教 43612
▁Y 43590
請求 43588
ブラウザ 43585
毎年 43549
ネット 43539
骨 43518
をする 43453
IN 43416
の両方 43409
空気 43407
にアクセス 43393
最 43393
週間 43373
スタート 43364
方向 43360
ソース 43339
アウト 43330
などを 43285
▁ダウンロード 43273
検証 43265
取締役会 43257
多様な 43251
だと 43235
オブジェクト 43223
持ち 43221
AR 43194
ハン 43169
ive 43163
手続き 43122
将来の 43115
管 43106
を見て 43088
担当 43070
彼女の 43064
公園 43057
ほぼ 43031
を実行する 42986
オフ 42945
ほとんど 42941
唯一の 42935
raw 42934
旅 42934
▁ビデオ 42927
達成 42899
事故 42897
経 42887
湖 42862
院 42830
第三者 42808
越 42794
管理者 42772
罪 42766
LE 42755
is 42733
▁0 42718
▁サービス 42711
組 42711
AC 42700
発行 42666
設置 42637
を用いて 42636
合意 42615
報酬 42602
ホール 42597
貿易 42571
雪 42559
資本 42529
会社の 42516
葉 42510
売 42497
▁他の 42483
一番 42434
ないように 42402
の場合は 42336
したこと 42309
要 42309
アー 42292
サブ 42286
ビット 42262
でしょうか 42247
かなり 42246
フレーム 42233
園 42232
がん 42205
マイ 42202
倍 42190
べき 42189
06 42162
精 42153
広く 42132
▁c 42110
バン 42109
源 42107
▁2015 42060
側 41946
古 41909
病気 41868
03 41819
用途 41762
人口 41755
ション 41741
道路 41723
認定 41699
ということ 41698
関数 41691
これまで 41651
いつでも 41593
市民 41587
承認 41585
all 41563
ME 41491
入れ 41486
ce 41476
ていきます 41471
簡単な 41431
パワー 41415
転送 41414
増加 41409
ES 41372
再び 41337
me 41336
CD 41330
に係る 41326
マップ 41309
以降 41301
調達 41299
07 41291
損失 41286
▁新 41282
▁ホーム 41260
携帯電話 41259
女 41245
35 41229
ウイルス 41188
age 41183
事実 41177
ard 41168
▁もちろん 41133
義務 41094
ものである 41078
ソフト 41072
チャンネル 41065
EC 41054
カン 41041
未来 41035
いつも 41022
▁17 41020
▁ファイル 41016
既に 40972
材 40960
女の子 40935
年には 40915
を受けた 40894
op 40872
春 40844
▁= 40832
の利用 40827
規定 40822
先生 40816
イノベーション 40815
布 40768
感染 40734
ER 40731
収集 40724
のすべての 40715
統計 40715
げ 40701
タイプの 40685
末 40666
夏 40639
の詳細 40626
とし 40621
ir 40608
席 40558
AP 40546
証明書 40528
支払い 40520
を示す 40501
Mac 40478
向けの 40463
▁データ 40455
ショー 40445
完了 40432
実現 40402
ロボット 40380
分の 40356
信 40353
SA 40334
▁当社の 40308
することが 40303
ヴィ 40300
ガン 40297
シーン 40286
▁そこで 40266
を与え 40240
▁一方 40235
の一つ 40225
ワン 40199
比較 40188
レーション 40178
日から 40147
減少 40128
際 40127
▁つまり 40125
キャンペーン 40125
行う 40113
ということです 40109
ストア 40092
▁今回の 40063
相談 40063
要件 40039
しましょう 40038
Fi 40025
ol 40016
を変更する 39995
授業 39986
ぼ 39970
ファッション 39963
マネジメント 39958
Android 39955
美術館 39947
マスター 39942
訓練 39941
十分な 39929
▁ページ 39926
専門家 39917
ai 39906
試 39905
キャリア 39889
原因 39884
観測 39859
いただく 39848
貢献 39814
▁『 39778
を持ち 39770
彼らが 39748
内部 39717
ドライバ 39713
農業 39693
ことにより 39631
bit 39612
シャ 39598
からです 39590
酸 39587
深い 39578
の名前 39576
であります 39538
人々が 39520
四 39508
ホスト 39491
300 39480
燃料 39441
io 39430
私たち 39397
ha 39390
たくさんの 39387
をクリックします 39384
▁de 39375
年齢 39313
レベルの 39302
▁日本の 39269
多く 39267
同期 39237
一部 39213
ab 39206
割引 39178
谷 39165
de 39159
ユーザーの 39159
についても 39146
指 39114
スキャン 39105
客 39082
の概要 39077
を見つける 39066
いたしました 39054
ハウス 39054
士 39054
当社は 39007
日本人 38998
種類 38964
のでしょうか 38960
意見 38950
いない 38943
転 38931
リクエスト 38914
できるように 38896
の数 38866
生き 38861
マシン 38853
▁30 38841
装飾 38841
ian 38833
インフラ 38815
代表 38809
注目 38798
を得る 38797
像 38789
業績 38784
回転 38776
▁だから 38767
RO 38750
会計 38726
を行った 38713
当社が 38695
助け 38694
校 38687
クッキー 38684
学部 38665
食事 38644
EX 38628
▁多くの 38628
周辺 38617
オー 38594
維持 38568
コマンド 38552
▁St 38530
ub 38517
ers 38505
SP 38492
圧 38489
の変化 38486
スポット 38485
見る 38474
▁イベント 38445
今年 38417
tion 38411
断 38396
切 38394
しかし 38389
そこに 38367
▁by 38348
なければ 38328
水準 38328
通常 38327
時には 38324
声 38297
ティー 38254
背景 38248
を受ける 38244
生成 38240
行き 38235
程度 38233
現実 38176
人権 38169
スタ 38167
ペン 38119
MS 38111
プレイヤー 38106
建物 38087
を行っています 38062
保管 38051
においても 38030
困難 38022
同時に 38004
歯 37969
振 37960
セン 37958
▁Z 37957
表面 37947
んです 37925
滞在 37904
SD 37896
ストレージ 37896
違い 37865
メン 37863
指導 37856
ビジョン 37854
雇用 37846
2000 37839
禁止 37805
進化 37798
台湾 37796
音声 37795
レス 37788
全国 37787
社員 37769
同意 37764
高度な 37749
工学 37712
▁Program 37703
EN 37695
に関連する 37671
出し 37643
かけ 37633
務 37617
投資家 37598
群 37587
ティング 37578
となっている 37572
アフリカ 37568
になりました 37558
ボール 37536
の下で 37525
アイ 37508
を持って 37503
回答 37502
主要な 37498
人に 37475
茶 37471
何も 37455
人間の 37453
可能性がある 37452
好 37444
行く 37422
ee 37421
mm 37336
バランス 37334
IS 37304
書き 37283
こう 37276
ショップ 37267
ベースの 37266
関係者 37265
傾向 37262
症状 37254
報告書 37247
歌 37196
はその 37173
ay 37168
をより 37163
有名な 37163
バイオ 37119
セミナー 37072
を使用すると 37069
のリスト 37066
共同 37063
土地 37051
をクリックして 37044
全て 37023
がありました 37017
私たちが 36994
夫 36984
かな 36983
距離 36972
以来 36951
55 36950
こともできます 36945
▁ニュース 36940
に行く 36923
生物 36894
サービスの 36891
サイ 36887
地震 36849
基 36830
金利 36829
クト 36823
継続 36817
時間を 36810
ユニット 36807
を介して 36791
一度 36790
単に 36770
ことも 36767
使用する 36767
展 36763
TA 36746
中で 36737
現代 36732
返 36727
顔 36721
ログ 36711
om 36702
▁All 36696
インドネシア 36674
伝 36663
強力な 36656
1000 36655
してきた 36653
丸 36651
側面 36647
競争 36632
ここで 36625
を選択し 36625
ワークショップ 36588
デバイスの 36577
の間 36564
を進め 36550
書類 36542
連 36539
TO 36534
軸 36501
しい 36498
をもって 36497
コンプライアンス 36441
2020 36407
希望 36369
ter 36368
られます 36365
▁% 36359
具 36357
板 36353
▁e 36322
が必要 36265
可 36251
選択肢 36249
項 36231
ローカル 36226
若い 36214
状 36210
▁まず 36196
ill 36193
予想 36193
ります 36176
相手 36149
方式 36140
ルート 36135
基礎 36090
やすい 36084
ランド 36069
コーヒー 36046
電圧 36042
色の 36041
義 36029
かれ 36013
ロール 36007
完全な 35988
ことから 35981
大きく 35981
ほとんどの 35975
▁当 35971
草 35951
医師 35940
net 35914
大統領 35901
の研究 35899
ack 35880
プール 35880
ビー 35861
身体 35859
疾患 35851
」「 35847
決済 35835
毛 35831
宮 35821
応用 35801
▁Google 35792
事前に 35791
タイトル 35743
積 35741
▁Co 35709
コー 35702
小さい 35695
作り 35694
権限 35691
好きな 35685
おり 35678
今後の 35667
▁この場合 35660
▁< 35640
ust 35629
地方 35617
制 35610
▁iPhone 35608
香港 35595
最適な 35554
退 35553
消 35549
▁こうした 35505
裏 35504
ant 35501
son 35500
ミニ 35494
審査 35488
鳥 35478
十 35477
プラスチック 35460
ッシュ 35459
検出 35450
視 35438
ドキュメント 35436
頃 35404
工業 35383
ジャー 35370
乳 35351
なしで 35347
ものの 35346
野菜 35344
na 35341
これら 35332
選手 35323
安定 35320
明らかに 35315
成分 35295
カナダ 35290
SE 35279
首 35275
ell 35216
▁国際 35186
▁we 35182
門 35170
配 35127
ール 35126
マルチ 35122
世紀 35111
今日 35092
証 35082
▁Twitter 35059
エル 35029
べ 34994
速 34991
進 34991
たら 34986
上げ 34982
深く 34980
ことはできません 34976
であろう 34963
36 34957
AS 34957
皮膚 34954
興味 34921
をはじめ 34919
カット 34918
床 34912
示 34906
壁 34896
社の 34887
最終 34883
細 34876
ON 34841
限定 34829
年以上 34827
記載 34826
ヘ 34807
社内 34805
ご利用 34796
クリ 34792
気持ち 34788
調 34787
神の 34755
することもできます 34705
アップグレード 34669
変動 34645
ess 34625
パーティション 34624
ance 34611
収 34609
グリーン 34607
危険 34596
ッド 34592
病院 34580
満 34579
をもたらす 34545
今まで 34538
容量 34526
難しい 34526
能 34516
秒 34514
▁# 34513
ターゲット 34503
常 34502
はこの 34490
つく 34489
連絡 34488
▁2014 34464
関心 34459
ログイン 34449
を選択する 34435
保 34431
年代 34427
回路 34422
女性の 34415
▁(2) 34407
冷 34402
の世界 34385
ロシア 34372
する必要がある 34351
の強化 34333
意 34317
pp 34314
するように 34308
▁it 34270
師 34270
結 34270
ベスト 34269
シミュレーション 34241
成果 34230
製品を 34222
▁ゲーム 34220
ゆ 34197
られている 34194
肌 34172
いただき 34143
大変 34130
ジー 34107
を追加 34100
低い 34080
バッグ 34079
指標 34079
▁次の 34068
豊かな 34068
活躍 34066
感覚 34062
祭 34058
番目の 34045
フォーラム 34008
基本的な 34005
デン 34000
車両 33995
予防 33990
政治 33988
服 33983
IA 33982
▁システム 33970
USB 33965
傷 33960
父 33960
▁+ 33956
▁その他 33953
調理 33948
支払 33943
チャ 33920
▁それが 33915
職 33912
専用 33907
ていること 33903
vi 33893
件 33888
UN 33869
にもかかわらず 33869
チン 33863
マウス 33856
皮 33854
満足 33852
窓 33849
うまく 33827
へのアクセス 33823
TM 33801
私に 33796
なぜ 33793
コア 33784
固 33768
と思う 33736
no 33728
める 33724
事例 33721
元の 33715
脱 33712
の後 33710
いただけます 33709
情報は 33703
時点で 33702
▁それから 33688
温泉 33667
破壊 33659
US 33658
ケー 33645
AM 33637
地区 33623
生命 33613
カテゴリー 33604
を作成し 33593
日本で 33589
片 33588
できた 33582
幅 33560
▁す 33557
社会的 33553
しないでください 33552
人と 33540
住民 33532
MI 33525
を得 33519
ディレクトリ 33511
言 33480
▁ビジネス 33472
通貨 33472
人たち 33464
派 33464
メイン 33456
従来の 33445
強く 33437
推奨 33431
公表 33420
追加の 33420
▁Con 33411
彼が 33400
にお 33398
乾燥 33398
▁ここでは 33393
穴 33345
だけです 33343
電子メール 33343
Qu 33319
▁“ 33315
CA 33313
報 33305
▁でも 33298
のですか 33288
▁b 33287
▁24 33278
勝 33277
パリ 33268
受信 33268
なし 33256
タブ 33241
生徒 33237
ヶ月 33229
▁Intel 33213
博物館 33205
っていた 33185
はまだ 33177
分子 33177
されること 33176
ハードウェア 33171
マイクロ 33161
地図 33161
を使う 33143
たちは 33139
していること 33128
の選択 33122
スピード 33119
ものとします 33112
42 33106
おすすめ 33090
オペレーティングシステム 33088
整備 33087
スマートフォン 33081
型の 33073
go 33070
ベル 33070
バル 33063
証券 33063
記述 33019
ki 33006
業者 33006
センサー 33001
グラ 32996
46 32992
特許 32985
▁2013 32960
▁Ch 32960
れた 32937
規模 32932
発電 32930
の上 32920
庁 32915
帯 32914
会場 32893
旧 32891
家の 32877
自身の 32877
man 32876
楽しい 32867
球 32861
ぜひ 32859
スケジュール 32850
チャー 32844
チュ 32843
実装 32836
損傷 32835
を選ぶ 32818
いかなる 32809
の下 32803
考慮 32801
今回の 32777
であると 32763
クリック 32752
役員 32744
ホームページ 32706
を参照してください 32700
現象 32690
画 32682
▁(1) 32679
に関しては 32662
掛け 32644
ot 32642
交 32629
弱 32624
ロゴ 32617
公共 32615
をご覧ください 32579
主義 32579
新たに 32561
自分で 32561
ブリ 32552
▁その結果 32550
の改善 32522
art 32518
こうした 32491
▁this 32482
送 32480
もある 32474
負荷 32463
▁with 32461
提出 32456
ならびに 32417
スーパー 32417
向 32412
限り 32402
を設定する 32401
林 32394
ここ 32379
協定 32378
Re 32377
を確認する 32373
一部の 32351
port 32346
時期 32343
デザイナー 32340
裁判所 32323
それに 32307
安全な 32298
▁ここで 32285
ニア 32252
になっています 32248
アップロード 32247
情報の 32241
メートル 32223
49 32210
44 32198
工 32195
記憶 32188
みんな 32187
除 32178
主な 32173
望 32173
プロファイル 32168
を感じ 32166
無料で 32152
の存在 32128
多数の 32118
ディスプレイ 32113
圧力 32112
神経 32106
深 32082
PA 32080
大きい 32080
紛争 32062
子供の 32035
クロ 32027
▁イン 32020
ファイルを開く 32018
決 32014
▁世界 32005
ショッピング 32002
ドイツ 31992
のお 31985
フランス 31984
を使った 31982
ue 31971
に関する情報 31967
逆 31955
会話 31953
することにより 31947
悪い 31946
読み 31930
武 31923
EL 31911
ゼロ 31900
学会 31883
本社 31883
まり 31865
プロパティ 31855
負担 31845
カバー 31841
放 31827
組み合わせ 31816
万人 31805
あまり 31800
電流 31797
AN 31786
する場合 31780
個 31778
民間 31778
org 31775
ast 31772
▁プロジェクト 31764
イエス 31764
の提供 31762
お問い合わせ 31759
OK 31737
場所に 31723
五 31720
▁サポート 31689
社長 31679
雰囲気 31674
ますが 31663
大規模な 31656
造 31651
を用いた 31644
ノード 31626
戦争 31620
物件 31614
ステ 31611
ライブラリ 31586
尾 31582
が高い 31572
に沿って 31568
物語 31559
ことをお勧めします 31554
を取得 31554
マーケット 31552
MO 31541
個々の 31539
仕事を 31534
保持 31531
を追加する 31505
見通し 31497
落 31487
諸 31471
体の 31462
彼女は 31421
されません 31413
65 31405
AD 31403
役割 31394
を開催 31383
得る 31378
演奏 31365
47 31350
数値 31349
▁デジタル台風 31347
卵 31339
聖 31309
訳 31279
セグメント 31275
ベッド 31269
を変更 31268
▁4. 31257
発売 31256
名の 31251
ドライバー 31242
伝統 31236
タグ 31231
ドア 31220
可能です 31191
グループは 31190
相互 31187
集中 31177
5% 31149
製品は 31141
まる 31135
数字 31124
すべてが 31117
59 31115
▁' 31105
ber 31104
ようです 31097
もし 31091
教会 31084
ものを 31079
危機 31061
自分自身 31055
ta 31054
カフェ 31052
放送 31051
99 31050
正確な 31041
害 31040
-2 31037
案 31035
▁Mac 31023
CC 31022
ダンス 30997
が多い 30989
霊 30989
アルコール 30966
コンセプト 30932
ですね 30928
▁Facebook 30919
宣言 30911
-1 30885
の前に 30885
▁g 30881
シェア 30875
▁ISSN 30867
▁オンライン 30860
▁Driver 30858
地元の 30845
信頼性 30840
のもと 30830
利点 30825
メンテナンス 30815
海洋 30811
もので 30797
条約 30787
ウェブ 30784
93 30777
ホーム 30774
▁あらまし 30767
自動的に 30767
▁And 30765
を備えた 30752
デスクトップ 30751
54 30725
大型 30725
提示 30715
日間 30694
心配 30686
予算 30672
することはできません 30658
完成 30654
国際的な 30653
破 30646
何を 30634
の可能性 30633
していました 30613
ただ 30592
のホテル 30592
藤 30571
米国の 30562
Asus 30540
などが 30539
を利用して 30505
伝統的な 30503
▁API 30481
募集 30472
はこちら 30471
2018 30460
HD 30460
ブルー 30451
実践 30449
暗号化 30431
つつ 30425
のいずれか 30421
ものではありません 30416
違う 30416
開発者 30407
企業が 30406
であれば 30392
レシピ 30392
厳しい 30389
子会社 30388
づくり 30386
原子力 30386
▁海外 30383
大学の 30380
廃棄物 30376
フォー 30375
にして 30349
観光客 30343
アイコン 30340
ight 30334
現地 30331
2017 30310
レート 30308
400 30289
ゲスト 30288
起 30288
の管理 30284
衛星 30239
指摘 30220
▁同 30203
端末 30203
お客様が 30193
良く 30186
を購入する 30180
べきです 30176
らない 30166
マル 30166
感謝 30146
予 30137
なのです 30136
> 30131
37 30127
圏 30122
在庫 30115
完全 30113
ことはありません 30111
エイ 30101
ことになります 30088
宗教 30076
ud 30074
上記の 30074
離 30071
課 30060
レッスン 30041
効果的な 30031
を表示 30022
懸念 30016
現場 29997
主要 29989
午後 29985
▁w 29984
便 29976
そうです 29963
をダウンロード 29955
43 29954
メールアドレス 29946
証明 29938
の構築 29933
リモート 29930
耐 29930
を開く 29929
遺伝子 29922
チャネル 29917
ul 29913
一方 29913
アパート 29903
何が 29900
のだ 29882
含まれ 29866
無料の 29861
ix 29859
プラグイン 29857
積極的に 29857
過去 29851
精度 29845
感情 29842
堂 29827
利用者 29822
ブラ 29817
▁Android 29797
共 29797
英国 29784
被害 29782
プリ 29775
▁株式会社 29750
プロモーション 29750
便利な 29748
33 29724
を高め 29714
沖縄 29713
ユーザーは 29705
目の 29704
妻 29703
利用可能な 29702
時間の 29702
国民 29699
連続 29695
ものであり 29677
できること 29664
ことによって 29647
実際には 29638
法的 29630
▁図 29603
博士 29603
割 29602
配送 29584
シティ 29576
などで 29566
ことなく 29564
ここに 29559
仮想 29553
することができ 29550
単位 29548
したら 29524
仏 29523
に伴い 29518
34 29505
▁しかしながら 29493
one 29466
給 29466
システムは 29463
を行いました 29460
を参照 29457
より良い 29456
選択した 29456
の状況 29441
をご 29429
の拡大 29414
ru 29394
方は 29394
理論 29386
優先 29378
学術 29355
炎 29340
家庭 29339
▁OS 29336
原則 29332
たこと 29330
にする 29328
求め 29323
居 29318
商標 29314
ence 29312
ure 29311
ピー 29290
気候変動 29279
38 29270
精神 29268
形成 29245
鍵 29239
▁ある 29236
の発展 29236
我々の 29232
場合でも 29230
友達 29223
保有 29212
ジョン 29211
させて 29208
ケア 29207
必須 29206
立て 29205
▁Server 29185
▁File 29182
サイド 29182
ビーチ 29179
合い 29155
太陽 29154
オーバー 29153
サウンド 29150
▁25 29147
39 29138
喜び 29138
の実施 29124
ベトナム 29117
副 29115
策 29106
は何 29091
結合 29085
太 29082
2019 29067
サーバ 29055
秘密 29050
に合わせて 29037
56 29035
改革 29032
入り 29021
に入る 29019
られています 29016
閉じ 29013
の中 29011
自動化 29006
市場で 28990
事務所 28987
張 28986
ブラック 28985
ボディ 28976
形で 28970
連邦 28968
失 28940
十分 28936
だが 28921
に伴う 28917
笑 28909
事業の 28905
▁2012 28903
CH 28899
▁x 28894
100% 28888
早く 28883
チップ 28882
定期的に 28863
石油 28860
写真を 28858
使 28857
諸国 28857
der 28854
ディング 28852
力を 28852
いません 28850
ガイドライン 28846
を実現する 28842
はすべて 28833
せる 28826
os 28810
▁中国 28809
宿泊 28805
OR 28801
指示 28800
▁エ 28794
DI 28790
em 28784
はとても 28777
を使用した 28776
栄養 28775
フォ 28772
スクリーン 28766
酒 28764
修復 28761
▁こちら 28741
クラ 28740
受賞 28739
昨年 28727
講演 28718
の間で 28708
記念 28708
ウィ 28691
アメリカの 28687
不足 28676
極めて 28675
ヌ 28674
▁最初の 28672
比率 28672
延 28661
ップ 28660
km 28657
ギャラリー 28657
閲覧 28654
タンパク質 28646
ファー 28640
ダン 28639
まれ 28633
貴重な 28632
働き 28628
までに 28627
ものは 28620
興味深い 28618
機能を 28614
労働者 28596
が可能です 28589
ピン 28588
が含まれています 28585
難 28580
プロジェクトの 28578
be 28577
静 28564
電池 28557
ブログ 28556
の違い 28544
コール 28533
しても 28516
独立 28505
医学 28496
cm 28495
番 28482
教師 28481
合う 28480
シーズン 28473
ニング 28469
液 28462
ドメイン 28442
ルー 28441
の特徴 28419
という事実 28416
ステージ 28407
▁彼女は 28405
際に 28402
箱 28397
ET 28396
選 28395
分離 28382
しなければならない 28380
営 28380
月期 28378
輪 28367
観察 28363
履歴 28352
プライベート 28346
防 28331
と同時に 28324
試み 28315
57 28312
下の 28297
を使用します 28292
ジャパン 28289
ST 28275
ical 28270
資格 28265
スイッチ 28248
大人 28248
応募 28242
比較的 28240
連絡先 28225
促進 28200
を取得する 28190
近く 28175
▁同時に 28153
ow 28147
建 28140
車の 28133
欠 28127
▁Me 28124
刺激 28095
英 28092
具体的な 28075
参 28045
ポー 28041
ことができない 28018
違反 28010
循環 28007
とか 28005
冬 28002
言い 27996
log 27992
ob 27992
▁t 27992
75 27984
江 27980
場所で 27979
プラ 27965
少 27963
パーク 27947
SC 27939
ユ 27927
殺 27924
トピック 27921
担当者 27908
を実現 27906
移行 27900
する前に 27898
ラル 27890
季節 27871
チェ 27866
なります 27860
フィルム 27860
スク 27856
▁研究 27851
ult 27849
もあり 27846
良 27843
充電 27842
方が 27842
の状態 27838
レコード 27838
教え 27829
済み 27822
複数 27821
まとめ 27817
教員 27813
― 27811
抵抗 27787
リアルタイム 27775
サービスを 27764
八 27761
瞬間 27748
プリント 27745
ユニークな 27732
ne 27713
▁サイト 27709
収入 27698
支配 27669
モー 27647
58 27646
生まれ 27633
共通 27621
最近 27620
住 27619
京都 27618
失敗 27618
演 27612
▁最後に 27592
長く 27583
ミッション 27579
53 27575
の機能 27574
参考 27572
編 27570
合成 27569
概要 27564
適 27560
」( 27553
ないでください 27550
さんは 27541
大学院 27538
留学 27535
財団 27525
5000 27521
DC 27510
▁Copyright 27509
反対 27509
ショ 27506
時代の 27500
終 27491
損害 27480
網 27469
トロ 27460
ary 27457
交渉 27454
エア 27452
持続可能な 27443
融合 27437
インポート 27436
世代 27419
▁An 27418
と言う 27416
に接続 27401
されていた 27397
となって 27381
済 27381
的で 27378
の主な 27377
パラ 27375
技術を 27369
問題は 27356
MyApplication 27353
族 27343
天然 27340
メカニズム 27334
周波数 27322
▁以下の 27317
▁Apple 27316
使う 27315
able 27309
プライバシー 27306
圧縮 27303
▁Se 27298
キャンセル 27285
▁ご 27283
アドバイス 27281
走 27266
守 27264
の製造 27252
ho 27250
敵 27247
照明 27239
汚染 27237
雲 27231
自体 27217
最後の 27192
言った 27178
を簡単に 27170
頻繁に 27135
軽 27127
ましたが 27123
▁マ 27119
sh 27116
対話 27112
仲間 27091
形態 27088
ポリ 27086
題 27075
▁Le 27072
仲裁 27072
余 27059
技術の 27051
67 27045
させた 27043
In 27042
挑戦 27041
と同様に 27038
応答 27033
フィードバック 27031
ができる 27027
を求める 27019
につきましては 27011
安心 27004
▁これで 26993
複雑 26991
無効 26984
一つの 26982
鉄道 26970
そのまま 26964
を知る 26960
金融機関 26955
関連する 26947
集団 26936
犬 26935
EU 26928
マネージャー 26928
つき 26927
なさい 26925
従来 26923
森 26919
十分に 26912
の実現 26908
清 26906
初期 26901
わない 26898
モノ 26893
▁2011 26892
されない 26888
緑 26888
の最初の 26880
つか 26879
ストーリー 26879
立場 26875
代替 26871
66 26869
規格 26865
目に 26864
盤 26862
航空 26847
流れ 26843
方法を 26842
かかる 26841
を利用する 26837
把握 26828
すぐ 26827
ゲ 26825
受け 26825
美術 26822
チャット 26820
を選択して 26813
レース 26806
われ 26795
樹 26791
いただいた 26785
脂肪 26777
銀 26777
髪 26773
がありません 26772
ても 26770
遊 26764
似 26756
ものと 26753
ちょうど 26752
計測 26750
苦 26743
バンド 26739
香 26732
* 26723
を必要とする 26715
性の 26708
LED 26707
▁ホテル 26675
有効 26668
修 26666
を目指す 26660
お店 26652
詳細な 26648
▁私が 26647
さえ 26647
を開始する 26635
今後も 26629
早 26628
豊富な 26626
ノート 26619
リス 26610
絶 26606
自分が 26598
掲載 26592
解決策 26588
お客さま 26586
LO 26585
真の 26585
分割 26581
▁Video 26574
来る 26570
プル 26568
52 26567
浮 26560
ストレス 26555
ong 26549
つまり 26540
するとともに 26533
安全性 26531
合計 26523
主張 26514
クレジットカード 26508
署名 26508
アルゴリズム 26507
させること 26502
▁21 26497
商業 26496
DS 26492
起こ 26480
ループ 26479
▁米国 26477
シンガポール 26471
キロ 26468
地域で 26468
▁ユーザー 26462
月から 26456
カスタム 26455
▁― 26442
勉強 26434
脅威 26430
当社グループ 26429
のサイズ 26425
79 26423
▁ID 26415
に参加 26401
被 26388
等を 26378
回収 26377
作家 26370
▁— 26362
世界に 26357
act 26349
▁23 26336
ロンドン 26327
41 26322
ファイ 26322
東京都 26317
を支援する 26310
当初 26296
× 26295
キャラクター 26285
惑星 26270
思い出 26265
覚 26265
子供たち 26251
下記の 26247
時間が 26246
を高める 26238
短い 26236
住所 26229
著作権 26209
秋 26208
RC 26205
切り替え 26198
中間 26196
を取る 26192
していきます 26189
カテゴリ 26189
バッテリー 26181
密 26175
ci 26160
一つ 26158
イタリア 26154
念 26154
文字列 26154
いつ 26149
NO 26148
▁IP 26143
タッチ 26141
リティ 26136
これまでの 26135
排出 26134
並びに 26131
プロフィール 26110
に直接 26107
ミン 26107
リゾート 26102
類似 26087
大阪 26080
口座 26078
していません 26071
ie 26057
留 26047
級 26037
弁護士 26036
2016 26035
スの 26032
ake 26030
fe 26020
▁pro 26020
86 26017
少ない 26016
華 26016
データは 26010
ip 26003
LA 25977
SO 25974
ようになりました 25960
一日 25960
大臣 25958
徐々に 25940
▁コ 25937
戸 25935
福 25935
ぬ 25931
グル 25930
企業は 25916
配布 25916
▁Online 25908
に戻る 25903
台風 25885
弾 25883
いくつか 25881
フィルター 25879
使い 25876
安全保障 25875
重要です 25875
旨 25872
▁そう 25852
算 25846
sa 25845
につながる 25840
チームは 25820
緊急 25820
事件 25815
レイアウト 25810
分野の 25798
サプライヤー 25787
プラス 25784
は常に 25779
純 25778
オンラインで 25752
は何ですか 25751
インタビュー 25740
の重要性 25732
ain 25700
2021 25694
始め 25693
フォト 25692
当たり 25691
悪化 25690
それから 25684
池 25683
の原因 25682
状態で 25679
▁通常 25672
せず 25671
▁PC 25666
にあり 25664
されていません 25661
au 25660
単語 25638
プレーヤー 25637
のほか 25630
RI 25628
ビール 25612
久 25605
の写真 25603
アルバム 25603
低下 25601
子ども 25598
tr 25597
はるかに 25587
ニューヨーク 25581
▁注 25579
トー 25578
ワー 25577
トランス 25574
至 25553
おります 25552
ようになった 25552
さんの 25550
アクティビティ 25542
レット 25542
耳 25536
フロント 25534
生産性 25520
600 25517
TI 25511
許 25507
始める 25490
プレート 25478
図書館 25478
発生する 25461
一方で 25449
おそらく 25445
ませんでした 25441
間で 25436
▁彼の 25429
練習 25424
クル 25420
犯罪 25418
クロス 25407
追 25403
Wi 25393
せずに 25393
まま 25386
マスク 25377
岡 25373
約束 25373
キリスト 25363
最後に 25360
桜 25359
オリジナル 25355
ていません 25353
オーストラリア 25353
世界で 25352
iz 25351
いま 25348
を再 25345
プレ 25345
▁Ma 25341
のに役立ちます 25338
が多く 25332
わずか 25321
彼ら 25298
qu 25294
事業者 25293
活動を 25291
なくても 25290
クス 25289
当事者 25274
要請 25274
ラベル 25260
▁> 25250
探 25250
お届け 25246
いく 25239
当局 25237
エンジニア 25231
工程 25222
てくれる 25216
▁それでも 25214
2014 25211
▁概要 25202
チュー 25191
最適化 25191
過程 25189
膜 25171
の方 25166
の導入 25164
の中心 25161
を削除する 25150
PR 25139
▁高 25132
こそ 25126
込んで 25119
をして 25115
微 25113
の下に 25110
段階で 25108
修理 25098
ヘッド 25093
ますます 25085
▁これが 25076
小型 25076
てまいります 25071
▁To 25069
医薬品 25061
▁Th 25058
過去の 25054
遠 25053
蔵 25039
ty 25034
最も重要な 25034
称 25033
カスタマイズ 25028
蓄積 25025
ベン 25024
< 25019
は約 25016
スキー 25013
これが 25011
閉 25006
手数料 25002
しばしば 24987
関 24987
商品の 24976
執行 24972
見える 24966
気候 24962
エンジニアリング 24960
を目指し 24958
を学ぶ 24953
子どもたち 24950
来た 24936
の各 24931
68 24927
レベルで 24926
包 24924
意図 24918
タル 24912
最新 24905
日付 24900
2) 24897
クター 24896
わり 24894
の経験 24891
の役割 24888
使用できます 24887
2015 24877
個人データ 24868
史 24867
を使用しています 24861
センサ 24860
に追加 24859
養 24852
の範囲 24845
はまた 24839
▁前 24837
▁オプション 24832
一定の 24831
するのは 24821
辺 24784
Default 24782
依存 24781
インターフェイス 24779
がある場合 24770
免疫 24767
もない 24758
警告 24750
形状 24735
普及 24735
それらは 24728
のデータ 24703
誰もが 24688
差し 24674
ていて 24666
の動き 24664
グラフ 24661
▁i 24659
77 24654
▁22 24652
現金 24641
チャンス 24636
粒子 24634
設立 24629
したもの 24627
▁Cloud 24618
突然 24617
▁Vi 24610
為 24609
温 24608
焼き 24604
議 24604
ジョ 24603
港 24599
寄せ 24593
忘れ 24590
ick 24579
製作 24579
を行うこと 24575
▁当社 24567
必要はありません 24567
どこ 24559
をサポートする 24529
接触 24522
話す 24520
に変更 24514
mi 24511
中心 24503
ものに 24502
物価 24501
物流 24499
グラム 24497
ダブル 24489
AV 24482
学び 24474
出荷 24467
りました 24462
行政 24458
結婚 24439
を求め 24438
our 24429
▁Inc 24424
一般的に 24421
51 24416
聖書 24407
私達の 24406
配慮 24406
当社グループの 24401
つは 24400
切断 24399
買 24389
招待 24388
EP 24385
党 24380
短期 24375
▁ただ 24373
▁2010 24369
あと 24368
▁今日 24362
インターフェース 24360
エクスポート 24357
詳しく 24354
おいしい 24345
DVD 24340
落ち 24339
譲渡 24338
▁小 24337
仕 24335
外国 24321
従 24319
得 24314
所有 24312
フィリピン 24304
FI 24291
に入れ 24289
各国 24282
アニメーション 24271
誌 24270
パソコン 24264
決議 24259
Cookie 24258
800 24257
サイクル 24254
▁Wiki 24246
に関わる 24245
すぎ 24226
): 24209
の取得 24208
てしまう 24206
の評価 24204
客室 24191
ビア 24184
▁アプリケーション 24180
にわたって 24179
の活動 24175
ブック 24173
快適な 24168
押し 24164
ニック 24160
スタン 24156
PI 24154
になると 24150
ユーロ 24150
ヨ 24150
作品を 24139
午前 24139
-3 24135
TE 24132
150 24128
行った 24124
してきました 24120
割り当て 24119
クリーム 24117
そこ 24108
▁今回 24105
債務 24105
だと思います 24096
案内 24095
降 24091
ウェア 24086
見て 24083
有機 24076
情 24074
ワイ 24069
正確に 24068
枚 24056
を完全に 24047
血液 24043
続いて 24042
▁28 24040
ソーシャルメディア 24034
同様の 24020
吸収 24001
イギリス 23998
印象 23998
深刻な 23996
file 23991
証拠 23990
▁設定 23986
av 23980
CT 23978
ペア 23977
礼 23976
高品質の 23975
本学 23971
に対応 23934
変数 23933
筋 23926
BA 23921
洗浄 23921
誰 23921
暮らし 23915
楽しみ 23915
NA 23914
▁(3) 23908
水素 23908
経済的 23907
リサイクル 23905
面白い 23898
お勧め 23897
があれば 23896
治 23896
強度 23886
人を 23877
▁do 23874
▁are 23865
決算 23845
概念 23844
ホワイト 23835
を考える 23817
一致 23812
識別 23812
グラフィック 23809
目的で 23809
スクリプト 23807
を経て 23799
湯 23794
エコ 23793
をさらに 23790
プレゼンテーション 23786
を理解し 23782
津 23780
スケール 23777
ノー 23769
確保 23769
半導体 23768
してから 23767
bo 23764
VPN 23762
輸入 23752
彼女 23736
情報が 23719
基金 23716
分類 23715
間に 23710
di 23702
先端 23701
抗 23699
存 23694
聴 23690
▁写真 23683
我々 23668
▁Tr 23658
表示されます 23650
レーザー 23636
だけではなく 23635
過ぎ 23634
魅力 23632
持 23621
下記 23618
からも 23613
▁d 23612
巻 23612
整 23599
▁Lo 23594
合わせ 23589
山の 23589
▁st 23584
たちが 23584
▁THE 23579
っと 23577
益 23575
2008 23571
になるでしょう 23564
広い 23560
のサポート 23556
寄付 23550
が含まれます 23547
-4 23544
お気に入りの 23543
まして 23541
分散 23531
モーター 23526
チャレンジ 23521
風景 23516
▁はい 23515
▁なぜ 23512
であるため 23510
▁いくつかの 23505
水の 23502
備 23500
現代の 23495
▁グループ 23484
に保存 23480
▁Ex 23469
科学技術 23469
数は 23462
と判断 23459
II 23455
▁5. 23449
散 23445
段 23445
▁n 23434
続ける 23434
高く 23424
締結 23412
ish 23405
陽 23403
不安 23387
息 23386
スイス 23360
パート 23344
リアル 23336
などに 23328
ガバナンス 23327
ダイアログ 23326
姿勢 23318
ps 23309
▁100 23295
クリスマス 23294
液体 23291
けど 23286
獲得 23282
85 23278
行使 23274
廃 23253
サイトの 23252
の一 23248
全く 23247
のひとつ 23245
まさに 23245
SI 23244
アーカイブ 23242
オイル 23237
大規模 23237
信仰 23231
▁プライバシーポリシー 23226
さない 23224
入学 23224
本サービス 23219
原料 23211
を開始 23209
面積 23205
jp 23201
繰り返し 23199
▁上記の 23196
皆 23184
KB 23179
日常 23174
防災 23173
応 23168
lic 23166
\ 23153
を楽しむ 23151
更に 23142
提携 23140
を見つけ 23132
OL 23123
ホット 23119
che 23118
▁26 23115
らせ 23115
▁アメリカ 23104
挿入 23099
VR 23093
ph 23089
を使用 23089
を促進する 23083
市の 23081
の流れ 23080
まい 23072
頼 23067
神様 23062
るために 23061
必要に応じて 23057
▁カ 23048
が高く 23048
ずっと 23048
がある場合は 23042
分野で 23035
顧客の 23029
の説明 23027
向けに 23023
行われます 23014
脆弱性 23011
一体 22988
かつて 22983
大手 22981
育 22981
明るい 22980
助 22972
発信 22967
▁詳細 22963
筋肉 22963
作用 22956
伸び 22946
000 22941
ウェイ 22937
▁同じ 22935
DR 22933
hu 22932
はもちろん 22932
を引き 22923
フェスティバル 22903
を適用 22900
ずに 22893
を達成 22886
ound 22879
88 22865
政府の 22852
シンプルな 22851
司 22851
ジン 22850
焦点 22844
St 22841
モニタリング 22841
の位置 22832
互換性 22830
を維持し 22828
スタジオ 22822
の準備 22810
除去 22806
セックス 22776
すぎる 22771
あなたを 22768
の表示 22765
乱 22762
1) 22756
DB 22747
排出量 22741
があること 22738
京 22728
薬物 22721
▁v 22713
を守る 22712
ページの 22711
到着 22711
レンズ 22710
するという 22707
にかけて 22698
に含まれる 22697
洋 22696
▁Vol 22693
則 22685
▁h 22684
留学生 22683
ide 22682
自ら 22672
ける 22670
さらなる 22669
市場の 22667
やその他の 22657
舞 22650
重量 22636
当時 22635
替え 22630
予定です 22629
RP 22617
赤ちゃん 22616
パートナーシップ 22611
乗り 22598
クション 22593
姿 22592
ear 22591
he 22591
森林 22580
ことになる 22579
工事 22579
向き 22570
歩 22569
ませ 22562
価 22551
が出 22548
対処 22545
革新的な 22537
▁彼らの 22534
新鮮な 22534
▁これら 22533
券 22529
組み 22528
印 22527
させます 22521
の中の 22516
オブ 22516
クロー 22513
ボリューム 22509
お使いの 22493
銅 22492
焼 22491
を決定する 22483
▁最も 22482
と考えています 22482
ジュエリー 22479
時間は 22472
写 22468
所属 22466
% 22463
カレンダー 22449
の情報 22448
支持 22444
依頼 22441
庭 22441
進行 22437
を取り除く 22433
遅れ 22424
農 22422
▁商品 22416
登場 22416
エンド 22411
は通常 22401
シフト 22401
イオン 22385
解説 22380
」、「 22378
ビタミン 22375
字 22371
を理解する 22366
行われる 22362
奥 22359
巨大な 22357
属性 22356
ies 22349
、[ 22341
▁アクセス 22331
アド 22329
はない 22326
移転 22314
2009 22311
の取り組み 22308
ock 22297
グローバルな 22295
貸 22294
▁Ro 22290
▁27 22287
▁イ 22286
ライフ 22274
及 22266
マス 22264
行われ 22264
SU 22261
ベー 22260
解釈 22260
香り 22256
ka 22255
サプライチェーン 22251
の皆様 22250
医 22249
た場合 22246
砂 22237
共和国 22226
繊維 22219
盛り 22217
ろう 22213
社は 22207
の色 22187
恐れ 22186
勤務 22183
ウン 22175
第二 22174
シス 22167
導 22167
得られた 22162
白い 22156
アクティブ 22152
キャンパス 22151
プロトコル 22144
切れ 22144
キング 22135
ハード 22127
宝 22127
学ぶ 22121
政 22116
高級 22105
プレビュー 22103
-8 22101
DO 22100
待ち 22100
ることができる 22089
iPad 22081
ラム 22078
日まで 22076
明治 22076
をインストール 22062
▁アカウント 22060
再起動 22056
のおかげで 22043
腸 22043
生地 22038
が提供する 22031
実証 22022
警察 22017
【 22012
マニュアル 22008
政府は 22007
売上 22005
▁CMS 22001
のウェブサイト 22000
ゾーン 21997
侵害 21992
数の 21991
ボランティア 21981
財政 21968
出発 21956
ばかり 21954
によっては 21953
▁50 21942
ソー 21937
▁ネットワーク 21933
ステークホルダー 21930
に対応する 21927
ペット 21922
すなわち 21917
の追加 21916
三菱 21915
人類 21909
お客様は 21898
優 21892
da 21888
眼 21887
問 21881
働く 21879
いわゆる 21871
▁主な 21870
DE 21857
雄 21851
面で 21851
tra 21845
2012 21832
州の 21819
を置く 21810
続き 21809
人物 21808
仕上げ 21803
を向上させる 21802
シングル 21801
マレーシア 21795
▁その他の 21783
IoT 21777
ect 21776
で最も 21774
きます 21768
を構築し 21766
人々に 21764
折 21764
▁グローバル 21759
人気の 21756
TS 21748
ファイルは 21746
然 21742
粉 21740
であっても 21736
の場所 21732
投 21730
の組み合わせ 21726
Apple 21724
手に 21721
ないこと 21716
案件 21705
魅力的な 21705
事前 21700
ゴールド 21699
創造 21692
そこで 21669
糸 21669
The 21667
緩和 21663
舞台 21659
“ 21657
を含め 21657
初の 21657
寄 21652
メソッド 21651
選定 21636
習 21628
つながり 21623
ナン 21621
▁現在の 21618
が必要な 21617
63 21613
カップ 21609
との関係 21603
復興 21599
の成長 21596
食べ物 21591
者に 21590
検 21588
シナリオ 21585
寝 21578
知っている 21573
ドラッグ 21569
ビン 21568
▁Ad 21562
若者 21561
min 21556
システムを 21553
投票 21543
az 21541
取り付け 21537
開く 21535
療法 21532
!! 21531
IR 21528
協議 21528
を作り 21526
始めた 21520
Pro 21517
iOS 21516
祈り 21510
できるだけ 21504
ことができました 21503
ことができません 21502
プログラムは 21496
格 21493
家具 21490
の販売 21486
ファイルが 21482
有効な 21480
を使用し 21478
会合 21476
場合に 21476
改 21472
使用されている 21468
牛 21465
を減らす 21462
他の人 21462
▁お知らせ 21457
の間の 21456
佐 21451
mail 21446
若 21446
▁全 21442
財 21435
ゲン 21427
メリット 21419
▁Microsoft 21407
もちろん 21400
真実 21399
を探す 21395
▁at 21389
ゾ 21385
▁そんな 21384
▁La 21382
簡単です 21366
ld 21365
DA 21357
短 21354
De 21337
単純な 21337
アナ 21336
でしたが 21332
ノイズ 21332
所有者 21328
▁export 21326
猫 21321
上記 21320
を完了 21317
シェル 21312
感染症 21311
の長さ 21306
CM 21304
術 21302
に貢献する 21296
使える 21296
意思決定 21291
pe 21289
ブラジル 21284
カタログ 21280
くらい 21274
▁検索 21273
研究室 21273
con 21271
習慣 21264
できるよう 21260
電話番号 21260
にいる 21259
CE 21251
援助 21248
臨床 21235
徒歩 21234
適切に 21231
コネクタ 21227
パーティー 21224
利用できる 21221
昭和 21219
略 21215
改正 21214
週 21211
95 21210
景気 21209
次に 21209
講義 21209
吉 21207
抽出 21206
mon 21205
羽 21194
高度 21194
sc 21188
ステータス 21188
量の 21186
期限 21185
エージェント 21184
外観 21183
ton 21177
用語 21166
を集め 21165
しっかりと 21164
▁Unity 21160
クリップ 21156
用に 21148
ローマ 21144
クーポン 21143
巻き 21143
新聞 21137
▁メニュー 21135
96 21134
ポートフォリオ 21131
LINE 21122
容器 21119
無線 21118
便利です 21115
▁We 21106
の設計 21104
寿命 21092
ens 21086
▁これらは 21079
させていただきます 21079
▁アプリ 21076
につき 21073
皿 21070
込んだ 21070
ハンド 21069
玉 21057
69 21055
追跡 21045
コンサルティング 21040
研 21039
TV 21038
▁as 21038
ノウハウ 21036
補 21029
お支払い 21026
陰 21023
と考え 21022
Nucleus 21021
一連の 21019
ite 21014
冷却 21011
というのは 21009
背 21002
▁” 20999
0000 20997
市内 20989
残り 20989
les 20986
を表示する 20986
チェーン 20982
外交 20980
を受けて 20977
テロ 20977
食べ 20976
の大 20975
独 20974
72 20970
湿 20970
ようと 20960
接 20960
こんな 20953
プログラムの 20953
鋼 20944
里 20935
計上 20930
gu 20927
好み 20923
▁実際 20919
エー 20917
▁have 20915
低減 20911
※ 20907
以前 20907
のメンバー 20897
保全 20894
他に 20891
コーティング 20876
が大きく 20875
プラント 20874
振動 20874
に登録 20870
▁サ 20866
▁Ar 20863
当時の 20861
がどのように 20859
ランキング 20857
あげ 20842
Vendor 20829
分け 20825
月には 20821
▁Home 20819
を変え 20811
を行っている 20805
タブレット 20788
込まれ 20787
通販 20787
河 20783
▁PDF 20773
疑問 20772
指定された 20764
放射線 20762
現状 20761
コンテナ 20753
された場合 20752
することです 20751
を変える 20748
を検索 20748
財産 20744
▁実際に 20735
限 20734
RA 20724
手続 20722
だから 20717
域 20714
続け 20708
ハー 20706
派遣 20703
相当 20701
宿 20699
時点 20698
選挙 20693
することによって 20689
ator 20684
まったく 20678
プレス 20678
▁ソフトウェア 20674
データが 20663
の対象 20661
加熱 20659
介 20657
に立ち 20653
シア 20645
ep 20643
トラフィック 20634
上がり 20634
▁Al 20627
効率的な 20621
菌 20618
▁Japanese 20609
最良の 20609
しなければなりません 20603
ミー 20599
自身 20594
人工 20593
代わりに 20588
2007 20586
考える 20582
内蔵 20581
従業員の 20573
の減少 20571
読 20555
つけ 20554
▁Mo 20551
責任者 20549
急速に 20547
両方の 20546
を強化し 20544
あたり 20541
▁このように 20536
手を 20536
果 20532
を作成します 20529
の高さ 20522
62 20521
ものが 20520
なのか 20519
負債 20517
ことを意味します 20512
を考え 20509
OT 20506
カ国 20505
の基礎 20502
るべき 20501
抑制 20499
oto 20493
に取り組む 20486
FA 20483
プレミアム 20480
▁Hotel 20479
▁キーワード 20462
GA 20458
志 20451
講師 20449
駐車場 20439
会長 20437
売上高 20437
突 20436
ピーク 20430
なっている 20422
グリ 20417
NI 20413
定める 20406
ko 20399
キット 20399
ポスト 20396
みな 20395
テック 20394
気分 20392
がその 20387
払 20383
独立した 20382
富 20376
sta 20372
これから 20372
知られ 20363
致します 20361
、2020 20359
時々 20357
オリンピック 20347
MB 20343
これまでに 20340
痛 20338
解放 20331
q 20327
録音 20325
きた 20322
IM 20316
の権利 20315
であることを 20310
強制 20310
本部 20310
延長 20304
ug 20299
られました 20298
時は 20297
ミング 20296
海岸 20295
ようになります 20290
に最適な 20276
ワールド 20272
信用 20272
下げ 20271
月末 20271
視点 20270
アプリケーションの 20267
が非常に 20266
ポンプ 20266
委員 20264
EV 20262
分布 20260
set 20257
のインストール 20256
命令 20256
配当 20248
委託 20242
感じる 20235
やかな 20234
重点 20229
残りの 20227
バラ 20226
北京 20225
しようと 20224
革命 20223
例外 20219
▁Print 20218
てい 20206
くる 20205
の推進 20200
オファー 20197
分間 20197
疑 20197
次元 20196
デモ 20194
休 20194
1/ 20192
ven 20190
mer 20185
出展 20176
▁$ 20171
▁三 20169
にした 20169
施策 20167
氷 20164
の発生 20152
太平洋 20150
名称 20144
組合 20140
▁29 20139
弁 20139
に同意 20134
跡 20134
▁News 20131
のダウンロード 20128
を実施 20127
好き 20123
混乱 20123
想像 20121
スクール 20117
願 20111
mb 20110
設 20110
▁Com 20097
全員 20095
知見 20093
専攻 20091
を推進し 20089
買い 20086
ED 20078
贈り物 20070
▁お客様の 20068
▁自分の 20068
RT 20064
PO 20056
イー 20050
考え方 20045
▁Citrix 20040
IO 20039
なしに 20039
をした 20035
一人 20029
ni 20024
開発した 20024
▁デジタル 20022
をはじめとする 20022
兼 20022
射 20018
競争力 20015
個人的な 20014
推定 20011
年度の 20009
ーン 20000
底 19998
影 19998
キュ 19994
▁Utility 19973
確 19967
カジノ 19966
ッチ 19963
▁USB 19947
歳の 19941
分解 19940
▁Data 19933
LI 19932
らず 19928
技 19927
日本と 19924
を選択してください 19922
の効果 19920
打ち 19910
損 19909
here 19902
小さく 19901
全体で 19897
にわたり 19894
ことが重要です 19892
▁セキュリティ 19888
を提供 19888
▁今後 19885
半分 19885
▁OF 19883
WiFi 19876
っており 19874
順 19870
▁64- 19860
多様性 19859
ハードドライブ 19858
▁was 19854
陸 19853
を読み 19847
るように 19844
ボトル 19842
▁ログイン 19840
キッチン 19838
次世代 19838
生じる 19833
61 19821
の魅力 19817
竹 19810
しよう 19807
売却 19807
賃貸 19798
ユーザーに 19796
-5 19791
訴訟 19791
生まれた 19790
ちょっと 19789
以前の 19786
に変換 19784
利用できます 19778
ダイヤモンド 19772
知る 19769
▁登録 19764
▁説明 19758
サービスは 19755
取り扱い 19755
初心者 19754
使用されています 19752
78 19751
コンソール 19746
両親 19744
胸 19742
物の 19734
戦い 19730
を読む 19729
仮 19727
ルド 19726
去 19721
仕組み 19717
かを 19714
を感じる 19714
オランダ 19714
ブース 19703
API 19700
アプリケーションは 19696
▁特定の 19688
LAN 19683
▁JAPAN 19681
柱 19680
IL 19665
▁今回は 19664
を使い 19663
共同研究 19658
美しく 19657
の目的 19655
安定した 19650
アンド 19649
進め 19643
シェ 19639
置 19639
加速 19635
land 19633
互いに 19633
栽培 19632
を提供すること 19630
物理 19629
2% 19620
の関係 19620
時代に 19620
を購入 19617
を示します 19615
変革 19615
の生産 19611
た後 19610
処分 19610
母親 19609
フード 19603
ない場合は 19601
Book 19597
世界的な 19597
そういう 19592
フォント 19591
チーズ 19588
デー 19588
個の 19587
消え 19587
遊び 19585
鼻 19584
地元 19583
縁 19582
の中から 19575
社会の 19574
出した 19570
られない 19567
ディス 19562
認 19557
リズム 19556
に従い 19544
彼に 19543
row 19541
転換 19534
再度 19527
が発生する 19524
ass 19518
倫理 19518
使用できる 19517
▁CO 19513
政権 19507
CI 19505
ヒント 19503
としています 19494
打 19491
対応する 19479
マイル 19478
ファミリー 19477
商品を 19475
▁インストール 19474
出席 19471
側の 19469
▁It 19467
迫 19466
▁トップ 19464
URL 19459
絵画 19454
くなる 19450
ところで 19450
に努め 19447
宅 19447
回り 19440
たちの 19438
するもの 19431
ool 19429
神社 19429
ice 19425
都 19422
▁それらは 19419
当日 19410
自由に 19409
個人情報を 19408
▁インターネット 19407
食べる 19400
今回 19396
載 19394
間違い 19394
ash 19387
$ 19386
98 19377
カラ 19374
自社 19371
がこの 19369
公演 19369
もう一度 19358
の一環として 19356
BC 19355
稼働 19349
トレンド 19348
(1 19347
デイ 19346
単 19346
広島 19342
iv 19339
▁このため 19338
▁どの 19338
関連の 19334
あなた方 19333
想定 19318
だけが 19316
CEO 19314
を見た 19314
SM 19312
調和 19312
タイミング 19311
にわたる 19308
問い合わせ 19302
オリ 19298
を超え 19296
パーツ 19296
そんな 19291
のレベル 19291
針 19291
日本銀行 19288
ner 19283
駆動 19282
ってきた 19279
を入れ 19277
ブランドの 19277
のではなく 19275
あった 19270
しさ 19259
ご予約 19257
正しく 19253
out 19244
とします 19239
受付 19237
大使館 19237
削除された 19236
所得 19235
の回復 19234
を使用すること 19229
用意 19229
研究成果 19229
破損 19225
作成した 19222
間違いなく 19222
トークン 19219
衛生 19216
化された 19201
最小 19200
統一 19198
キーボード 19196
政治的 19194
覆 19194
▁40 19188
のニーズ 19186
に表示されます 19185
されると 19182
長い間 19179
ホテルの 19174
メキシコ 19173
硬 19171
偽 19162
雑誌 19155
炉 19150
全部 19148
近くの 19147
ゲームの 19143
を残し 19141
トーク 19139
大切な 19133
と言って 19125
に影響を与える 19119
の専門家 19115
運 19106
採 19102
の削減 19097
上部 19097
のみならず 19095
融資 19091
自転車 19090
誰も 19089
use 19087
抜 19087
出版 19083
袋 19083
いか 19081
信頼できる 19077
買収 19072
の方法 19064
欲しい 19056
れない 19052
3000 19049
歴 19045
炎症 19043
クタ 19038
日々 19037
有名 19034
黄色 19028
最低 19026
va 19022
私立探偵 19021
▁これまで 19016
ヴ 19016
吸 19014
ナノ 19011
取組 19011
▁can 19008
▁英語 19008
▁2008 19004
の多くは 18996
娘 18996
遠く 18995
2010 18994
セットアップ 18994
プロダクト 18991
▁Graphics 18990
が可能 18977
職場 18974
形式で 18973
なりません 18971
ina 18970
帰 18969
国内の 18967
確定 18967
民族 18965
人事 18962
でない 18958
テル 18957
まった 18953
レイヤー 18952
の良い 18950
3) 18949
プロの 18948
いかに 18947
を作成 18946
彫刻 18946
AB 18944
節約 18944
ようになる 18925
明らか 18923
ron 18921
# 18920
主催 18912
する場合は 18906
カリ 18906
支 18905
含 18904
になること 18903
共通の 18902
への対応 18898
靴 18895
製の 18894
Trans 18890
三井 18890
折り 18887
濃度 18878
上場 18877
モードで 18869
の全 18868
の品質 18868
対象者 18861
の花 18854
お茶 18849
を有し 18849
付きの 18848
アンケート 18846
高齢者 18841
を学び 18833
取る 18830
ART 18827
3: 18826
方法です 18826
89 18825
2011 18824
詩 18821
▁Art 18814
国内外の 18805
わからない 18801
シンポジウム 18798
示唆 18796
を保存する 18775
永 18775
2013 18774
HP 18773
大量の 18773
誰か 18766
賀 18762
を忘れ 18761
▁~ 18759
、2019 18758
出資 18749
糖 18744
郡 18730
▁Pre 18728
あなたがた 18717
休暇 18715
基本方針 18712
cal 18706
ade 18703
ノン 18702
隊 18688
6000 18683
されている場合 18682
家族の 18679
▁拡張子に 18670
ソーシャル 18668
幸せ 18656
性を 18656
を除く 18645
テープ 18645
話を 18645
▁App 18643
▁6. 18638
▁私たち 18635
パック 18634
患者の 18628
是非 18627
ti 18624
キャンプ 18619
複合 18617
EE 18612
を実施し 18612
倒 18612
リース 18611
痛み 18606
ster 18594
メル 18594
▁ほとんどの 18587
消去 18587
でもある 18586
の助けを借りて 18583
の保護 18575
庭園 18574
ans 18572
振り 18572
増え 18571
後で 18568
先の 18565
搭載 18564
保守 18555
困難な 18554
するよう 18548
コート 18548
ターミナル 18545
変わり 18545
厳 18542
なお 18538
技術は 18530
120 18520
育成 18519
を維持する 18510
PT 18509
への影響 18505
.4 18504
▁メール 18498
築 18495
を対象に 18494
目を 18494
業界の 18493
朝食 18491
Intel 18487
万円 18481
トイレ 18468
No 18457
積極的な 18455
装 18451
果物 18450
見学 18442
なか 18437
劇場 18436
plugins 18434
準 18431
ケーキ 18430
個人情報の 18428
結果は 18425
1.5 18421
もなく 18415
角度 18411
マクロ 18403
隠 18397
int 18394
をご利用 18392
必ずしも 18392
ローン 18388
▁もっと 18383
ともに 18383
個人の 18381
ご利用いただけます 18376
ラップトップ 18363
科目 18360
そこから 18359
によって異なります 18357
単一の 18353
いで 18352
nd 18350
を削除 18343
を確認 18340
Microsoft 18332
ったり 18332
インスタンス 18332
支出 18331
▁デザイン 18325
海外の 18325
1: 18324
▁me 18324
どちら 18319
坂 18316
保健 18313
シャツ 18312
に記載 18310
アクセサリー 18309
殿 18309
▁from 18308
問題を 18307
一般に 18306
周 18303
ION 18296
中止 18296
を伴う 18294
、2018 18292
国籍 18287
ディレクター 18284
スロット 18282
76 18278
NS 18278
PE 18272
が自動的に 18267
old 18266
をしている 18264
使用される 18264
その結果 18262
ロシアの 18257
品種 18254
に従う 18252
沢 18248
湾 18243
進歩 18243
さらには 18241
程 18240
いただける 18228
状況を 18218
▁画像 18215
百 18214
技術的 18207
最近の 18200
長さ 18196
撃 18191
sk 18190
マッサージ 18183
各地 18175
勝利 18174
コンサート 18170
主体 18168
▁コマンド 18167
すこと 18166
バリ 18164
に向け 18163
丘 18159
海の 18154
慎重に 18149
▁言語 18147
性と 18138
誇り 18137
眠 18134
神戸 18128
私たちに 18127
を進める 18126
為替 18125
そのもの 18112
アセット 18110
ドレス 18103
chi 18102
ore 18102
数多くの 18097
必要です 18096
展覧会 18091
んでいる 18088
耐久性 18085
理由は 18079
ご使用 18076
つい 18070
を探し 18069
アジアの 18069
透明性 18069
本の 18066
▁not 18057
▁パ 18057
▁US 18054
休日 18052
を迎え 18039
WA 18037
▁ここに 18037
をクリック 18037
カート 18036
ていますが 18034
インチ 18028
値は 18028
封 18025
▁動画 18021
vel 18016
携帯 18014
に比べ 18011
やって 18010
新しく 18009
系の 18009
を体験 18006
等に 18005
職業 18004
ることで 17998
価値があります 17998
死亡 17996
2006 17994
リセット 17994
の新しい 17992
▁オ 17986
EM 17985
モニター 17976
ひとり 17974
ヴァ 17974
ブロックチェーン 17972
機能が 17971
国々 17966
六 17965
を入力します 17961
提供される 17955
等により 17951
うち 17949
結び 17947
適応 17947
最終的に 17945
黄 17944
心臓 17937
のリスク 17936
とおり 17919
▁複数の 17912
機能は 17909
eng 17908
▁RE 17905
▁2009 17899
率は 17899
アニメ 17897
血管 17896
さんが 17894
の実行 17888
の確保 17888
抜け 17880
2005 17865
CL 17865
女性は 17864
老 17864
を設置し 17857
▁International 17855
試合 17855
鉱 17852
ナイ 17847
行って 17846
推移 17845
エッジ 17843
継続的な 17842
エス 17841
ran 17838
先に 17837
うる 17833
フォルダー 17826
に向かって 17825
らしい 17825
ition 17823
化する 17819
特殊 17819
しかった 17807
ヒト 17807
はほとんど 17805
国際交流 17805
浜 17805
絶対に 17805
生きる 17798
息子 17790
ual 17782
ケン 17780
ご注文 17777
の木 17777
を切り 17776
買い物 17775
の後に 17773
小売 17772
ウィン 17770
以内 17770
令 17768
溶 17768
ベルト 17762
説 17762
次のように 17759
監査役 17756
ビルド 17755
をすべて 17754
ボーナス 17749
▁コンテンツ 17745
に比べて 17745
Pa 17740
いき 17739
▁• 17735
ポジション 17733
人も 17732
複製 17728
をダウンロードして 17727
暗 17715
島の 17707
水を 17706
ラップ 17705
ヘルプ 17701
の方が 17696
配列 17696
露 17695
▁本文 17693
ビザ 17692
lu 17685
に焦点を当て 17684
− 17680
ゴム 17680
gr 17677
以内に 17676
自らの 17675
シャル 17674
リオ 17673
左右 17667
触 17665
インターナショナル 17661
ティック 17660
を引き起こす 17659
包括的な 17655
▁an 17654
彩 17654
に適用 17651
終わり 17649
気が 17648
発生した 17648
属 17632
▁それで 17631
しようとする 17629
ブラシ 17628
を導入し 17623
近年 17621
Po 17615
残高 17615
UI 17612
高さ 17611
デフォルト 17610
を受け取る 17609
九 17608
を大幅に 17606
を目指します 17597
続く 17596
ax 17582
流通 17579
クレジット 17578
はすでに 17577
飛び 17577
アーキテクチャ 17572
スは 17572
歩いて 17570
普通の 17569
職員 17569
ユーティリティ 17567
児童 17563
▁ブログ 17551
後半 17551
上海 17549
はあなたの 17548
に対処する 17544
税金 17544
2. 17540
資産の 17537
ひと 17533
年間の 17533
を改善する 17532
・・・ 17529
言及 17529
ボー 17528
▁Un 17527
YouTube 17525
はかなり 17524
豆 17523
環境で 17522
▁So 17517
洗 17517
発達 17516
だけの 17514
CSR 17513
▁注意 17513
本当の 17510
きました 17509
の生活 17509
がありますが 17508
ga 17502
リード 17502
するためには 17500
87 17496
継 17489
自宅で 17488
夏の 17486
▁■ 17485
決め 17483
遅延 17480
体重 17477
pi 17471
ステーション 17471
横浜 17469
を選択 17463
言って 17462
すべてを 17459
との間で 17457
SS 17456
キシ 17455
規模の 17453
.2 17452
HI 17452
▁私たちが 17451
リラックス 17451
を確認してください 17443
見え 17441
あらゆるファイル拡張子を 17440
コンテンツを 17440
出来る 17439
地上 17437
軍事 17437
line 17434
ちゃん 17434
を共有する 17430
していて 17426
▁無料 17424
オート 17421
ase 17420
ない限り 17419
ほ 17419
ていくこと 17416
を支える 17415
97 17413
回の 17413
ッキング 17411
映 17410
付けられ 17409
安定性 17409
始まり 17408
と思った 17405
コラボレーション 17395
ost 17389
、2017 17386
に貢献し 17384
ana 17383
ストリーム 17381
灯 17381
泊 17379
借 17377
妊娠 17376
メモ 17372
の場 17368
テーション 17368
をどのように 17362
を指定する 17360
▁Comp 17358
リック 17346
はありますか 17340
Con 17336
解像度 17332
どこに 17330
bi 17329
物を 17327
動向 17323
訪問者 17321
を構築する 17316
徳 17309
pl 17303
サービスを提供する 17302
勢 17299
を踏まえ 17297
スタートアップ 17296
▁さまざまな 17295
の方々 17287
を利用した 17284
会社は 17284
効率的に 17280
手紙 17280
を活用した 17279
途 17275
チャン 17269
辞 17267
つです 17266
撮 17265
捨て 17262
済みの 17259
app 17246
テー 17245
▁AND 17244
毎 17244
腹 17242
way 17240
の治療 17240
いている 17237
北海道 17230
▁Tableau 17227
ピア 17227
福岡 17224
組織の 17222
かり 17220
を実行 17220
臨 17218
航空機 17217
ミュージック 17210
Adobe 17205
こともあります 17204
二人 17203
を紹介します 17202
3% 17200
入手 17200
赤い 17196
徹底 17195
を設定します 17193
の仕事 17186
キーワード 17175
なども 17174
FO 17173
コントローラ 17170
方向に 17170
▁Contact 17163
ミス 17159
EA 17156
にとっては 17154
込 17152
を通じた 17151
に取り組んでいます 17145
ポータル 17144
を図る 17133
をクリックしてください 17130
盛 17129
の確認 17125
oo 17123
中断 17117
ストラ 17115
婦 17111
TER 17108
の第 17107
一層 17107
ッグ 17105
手術 17105
柔軟性 17093
おき 17086
ハワイ 17083
の観点から 17078
スペイン 17076
ない場合 17073
イスラエル 17072
ier 17067
提供する 17066
付属 17063
▁別の 17059
最適 17055
炭素 17055
▁コメント 17053
レンタル 17050
由来 17047
報道 17041
発明 17034
か月 17033
を示しています 17031
鍋 17027
住友 17026
スピーカー 17024
の大きさ 17023
格納 17022
ゴルフ 17021
容 17021
チューブ 17020
作品は 17019
二つの 17017
ture 17013
を作って 17012
と比較して 17005
増大 17005
東南アジア 16999
たとえば 16997
オーナー 16993
安全に 16993
キュー 16992
前年同期比 16992
軽減 16990
プロセスを 16989
短縮 16987
教室 16985
▁連絡先 16982
秘 16982
▁ここ 16981
の中には 16981
就 16980
プロバイダー 16979
甘 16968
分かり 16967
1% 16963
トルコ 16963
はず 16961
兵 16957
荷物 16955
を開きます 16951
ホン 16948
皆さん 16948
時刻 16943
PM 16942
▁アジア 16941
に参加する 16939
明確な 16939
際には 16939
なっています 16938
ご連絡 16937
に位置する 16934
を獲得 16932
スレッド 16930
をもとに 16926
典 16921
当て 16920
ギフト 16918
サル 16917
のデザイン 16914
▁をクリックします 16912
共に 16908
ミュー 16906
がより 16902
に適しています 16902
サイズの 16899
プログラミング 16897
LL 16893
をかけ 16892
喜 16891
査 16889
といいます 16888
食材 16887
name 16885
ファンド 16885
異なります 16882
これに 16873
得られる 16872
土壌 16870
刻 16852
が存在する 16846
個別 16841
酸化 16838
に近い 16835
フラ 16828
する際に 16826
宿泊施設 16824
が行われ 16823
に従事 16817
タンク 16816
誕生 16810
ress 16809
マイナス 16809
北米 16809
に興味 16800
チョコレート 16799
▁us 16798
を続け 16798
彼女が 16797
不要 16787
言え 16785
ストリート 16778
あまりにも 16776
滅 16776
価格は 16772
▁花 16769
,5 16763
決して 16761
でもあります 16759
シング 16757
CR 16756
進み 16752
1,000 16745
卒業 16745
事業活動 16744
を明確に 16743
最先端の 16736
社外取締役 16735
にご 16733
取組み 16731
野村 16727
不正 16726
情熱 16726
81 16721
▁ex 16720
にあたり 16720
再生可能エネルギー 16717
解明 16714
作成された 16709
tro 16708
部の 16708
条項 16707
研究センター 16698
屋外 16697
PL 16696
IF 16695
を実施する 16694
結晶 16690
重大な 16688
BI 16687
まっている 16682
問題を解決する 16678
きっかけ 16668
のであれば 16668
兆 16668
冷蔵庫 16668
解除 16665
ドー 16663
するのが 16658
競技 16657
氏が 16655
市場に 16652
グレー 16651
想 16650
スパイ 16646
▁4000 16644
補助 16644
策定 16638
Facebook 16635
有料 16634
同社 16633
熟 16633
の質 16628
しましたが 16621
屋根 16621
▁Studio 16614
値を 16610
にします 16609
っていない 16606
両国 16601
もありません 16599
コイン 16599
ヴェ 16597
を覚え 16594
差別 16593
堅 16592
護 16587
▁Open 16585
広がり 16585
七 16583
パラメーター 16582
行われた 16579
ゴー 16578
飲み物 16572
歩く 16571
塔 16564
建て 16563
クエリ 16558
4) 16556
▁キー 16555
▁サイトマップ 16555
▁会社 16552
起こる 16552
福祉 16546
異常 16545
起こった 16545
見られる 16544
容易に 16543
崎 16543
を開き 16542
ネー 16540
でさえ 16539
あらかじめ 16537
ますか 16536
進出 16535
していますが 16534
に適した 16527
国境 16527
後は 16525
実務 16524
利用可能 16523
暴力 16521
ごとの 16520
を食べる 16516
をクリックすると 16515
出来 16513
てくる 16505
一歩 16504
前年 16503
の構成 16502
荒 16502
フライト 16499
専用の 16495
出願 16492
▁記事 16486
年まで 16480
▁専門分野 16477
呼び出し 16474
を超えて 16470
▁2007 16466
を持った 16464
度の 16461
大気 16458
機器の 16458
ムー 16457
▁発行日 16456
劇 16456
損益 16456
が増え 16455
ヘル 16455
この問題 16443
始 16443
汚れ 16443
スポンサー 16440
ert 16438
改良 16432
アカウントの 16429
▁Or 16427
払い 16425
枠 16424
プロセッサ 16423
氏の 16423
債権 16421
始めました 16415
ひとつ 16408
失われた 16408
フラン 16406
活性化 16406
ISO 16399
変わる 16398
▁Management 16397
女性が 16397
▁Mar 16395
ッカー 16394
時間と 16393
リポジトリ 16391
の再 16390
首相 16389
▁con 16388
するなど 16388
Gr 16386
900 16384
チームの 16383
▁● 16381
景色 16378
鏡 16373
ここでは 16371
混 16368
の様子 16357
双方 16354
わけではありません 16353
Mi 16352
▁メッセージ 16346
飾 16342
成功した 16333
全体を 16332
科学者 16325
フラッシュ 16319
語り 16319
TR 16311
胃 16311
さま 16309
▁関連 16308
4000 16306
何らかの 16305
脚 16302
CAD 16295
▁今すぐ 16294
を有効にする 16294
の代わりに 16290
止め 16287
FC 16280
▁iOS 16276
を描く 16276
Twitter 16269
を指定します 16268
レプリカ 16265
既 16265
1. 16264
スコア 16264
制約 16260
アス 16258
原理 16254
算定 16254
2003 16252
ロケーション 16250
を実行します 16247
魂 16247
▁As 16245
に掲載 16244
少年 16243
前提 16238
のお知らせ 16237
に大きな 16235
誰が 16231
-19 16222
▁University 16220
ba 16216
アラ 16215
リサーチ 16215
なって 16213
迅速に 16206
Ca 16205
▁メディア 16205
ワークフロー 16205
犯 16203
様式 16198
Citrix 16196
クーポンコード 16195
方の 16195
amp 16190
性質 16190
スライド 16180
を入手 16178
縮 16175
始まった 16170
▁世界の 16165
トゥ 16165
を開発し 16159
スープ 16159
1990 16157
bu 16156
の整備 16152
オール 16147
8000 16144
既存 16144
74 16139
▁この記事 16139
心を 16139
空の 16136
贈 16130
伴 16129
▁さて 16127
捕 16127
癌 16125
7000 16121
神は 16121
▁En 16119
の時間 16119
高性能 16118
事業を 16114
共産党 16109
レッド 16108
ver 16107
の基本 16104
に影響 16095
を利用し 16084
自然の 16083
ire 16082
ロス 16082
重要である 16080
を表示します 16079
ライフスタイル 16079
シンプル 16075
起こり 16073
の価値 16068
べきである 16068
化し 16065
ものとする 16064
女子 16063
カウンター 16061
のまま 16059
頻度 16055
およそ 16047
中国語 16043
ASEAN 16039
世界的に 16038
▁Part 16037
台の 16033
職人 16032
サブスクリプション 16026
air 16022
▁INFORMATION 16019
止 16018
話題 16016
ING 16015
やり 16015
戦略的 16014
が発生し 16012
技術と 16012
の形 16011
完璧な 16011
の値 16010
組み立て 16010
挨拶 16006
置き 16006
をもつ 16005
等が 16003
美味しい 16002
むしろ 15994
Java 15993
リーダーシップ 15991
ために必要な 15990
限界 15990
幸い 15987
ca 15985
清掃 15977
の決定 15974
を更新 15974
ラウンド 15973
そうな 15968
貧困 15962
することに 15960
tain 15958
であるか 15958
▁your 15955
評 15955
グラス 15954
強さ 15953
防衛 15953
を活用し 15952
、2016 15950
ort 15944
Lab 15943
結論 15942
することなく 15940
尿 15939
6% 15938
84 15938
PP 15928
しま 15928
top 15926
問題が 15926
視聴 15925
を発表 15924
することをお勧めします 15923
告 15922
経過 15922
を使用してください 15921
を入力する 15919
マネー 15919
投入 15919
▁¥ 15917
我が国 15916
知られています 15916
与 15913
JR 15912
できるようになります 15911
睡眠 15911
添付 15910
▁コミュニティ 15908
の例 15907
混合 15907
3. 15905
整理 15905
CK 15903
▁パスワード 15902
▁これを行うには 15900
測 15900
デフォルトの 15899
兄弟 15897
コーポレート 15895
▁Store 15891
さと 15890
出て 15888
MD 15887
を確実に 15885
心に 15885
を通じ 15884
確実に 15882
▁このような場合 15880
かす 15878
合わせて 15878
家に 15876
簡単 15864
おい 15859
善 15856
接着剤 15854
天気 15852
▁サーバー 15850
FT 15849
▁about 15846
理想的な 15838
飛行 15835
豊 15831
ガル 15826
や他の 15821
資 15821
° 15819
充実 15819
本件 15816
関与 15811
do 15810
now 15809
今年の 15805
規程 15803
チームが 15802
フレ 15802
事を 15799
観客 15795
を増やす 15794
必 15789
確かに 15789
の中でも 15788
変化する 15782
インテリア 15779
を確保する 15776
昔 15768
誠 15766
研究科 15764
大使 15759
受注 15757
FS 15755
信託 15753
周り 15750
数量 15747
▁参加 15746
を中心とした 15742
▁Sp 15741
▁タイ 15741
以上に 15737
革新 15737
をとる 15736
ろうと 15735
意味で 15735
を推進する 15733
便利 15731
自然な 15731
sp 15723
早い 15723
日本国内 15722
▁一部の 15716
tor 15715
CS 15714
いただきます 15714
du 15713
件の 15712
なん 15711
届 15709
に感謝 15706
Word 15704
ランプ 15699
認め 15698
日米 15696
700 15695
君 15689
数学 15689
に役立つ 15688
▁IT 15682
一時 15682
▁31 15680
浸透 15677
の構造 15676
そのうち 15673
ネス 15672
によれば 15669
を始める 15667
可能性のある 15666
form 15665
ポン 15665
岸 15663
ぞ 15655
を採用し 15654
ビリティ 15654
しなかった 15648
に基づいた 15647
Tech 15646
日産 15646
デバイスを 15644
を見つけて 15640
拒否 15640
思え 15639
▁種別 15638
HA 15631
酸素 15626
73 15623
スパ 15622
道を 15621
したい場合は 15620
を積極的に 15619
迅速な 15619
インデックス 15618
宝石 15618
ther 15617
過ごし 15615
定期 15610
各国の 15605
ニュ 15604
助言 15601
フィルタ 15599
今日の 15598
活 15594
ial 15593
を復元する 15593
庫 15586
にかかる 15582
の最大 15580
インター 15580
麻 15577
たくさん 15576
意義 15576
ワード 15572
調節 15572
サッカー 15569
をもたらし 15565
利用規約 15563
.1 15559
aka 15558
部分は 15557
ミリ 15556
敷 15556
箇所 15556
SIM 15555
返品 15553
淡々と 15552
pri 15550
売買 15550
タクシー 15548
離れた 15547
しっかり 15546
2: 15545
ピース 15545
▁近年 15542
▁About 15541
厚 15537
資金調達 15537
の適用 15536
ok 15534
vo 15534
降り 15532
開かれ 15528
祭り 15527
ティブ 15523
▁... 15522
えた 15520
コーナー 15515
▁INSTITUTE 15514
ホルモン 15512
に達し 15511
するまで 15510
の割合 15510
▁プロ 15509
を修正 15506
スタンド 15506
の形で 15502
見た 15501
飲料 15501
視覚 15500
学んだ 15497
PRO 15491
思う 15490
いただきました 15488
航 15488
世界中で 15487
シップ 15482
思考 15480
カスタマー 15478
走行 15478
激 15477
ツイート 15476
ボート 15476
ユー 15476
▁Do 15466
▁クライアント 15459
のバージョン 15459
何度も 15458
砂糖 15458
個性 15457
かもしれませんが 15456
があると 15453
除外 15453
▁ELECTRONICS 15449
を管理する 15446
冬の 15442
虫 15442
pos 15441
を満たす 15441
pro 15440
沈 15440
ができます 15438
高校 15438
part 15437
プレゼント 15436
結果を 15435
▁COMMUNICATION 15432
day 15429
▁Be 15426
リスク管理 15426
▁デバイス 15425
方法について 15424
自宅 15422
と考えられる 15418
荷 15418
デザインの 15417
ストリーミング 15415
期間中 15415
を見せ 15414
話し 15409
ジュース 15406
動的 15405
適用される 15405
▁32 15401
総額 15401
補償 15398
エクス 15396
▁一般 15395
聞き 15395
生じた 15394
とは異なり 15392
適切 15390
と同じように 15388
チュートリアル 15388
don 15386
▁それらの 15385
経験を 15385
-2355 15381
ソフトウェアは 15376
▁1) 15375
やすく 15375
者と 15374
0913-56 15372
:2188 15371
▁ENGINEERS 15368
を生み出し 15367
前後 15361
を生み出す 15359
申し 15356
ーム 15354
言えば 15352
引用 15351
▁Center 15345
、2015 15341
述 15340
もう一つの 15339
ラジオ 15339
har 15334
ワクチン 15334
の手 15331
作られた 15330
衝撃 15330
幕 15329
しない場合 15328
クリーン 15324
縮小 15323
の人々 15320
始めます 15320
オレンジ 15315
それほど 15314
を提出 15313
確信 15311
ML 15307
近い 15307
の必要性 15304
の更新 15303
を確認し 15303
活性 15299
作る 15297
ベイ 15292
の処理 15291
any 15283
改めて 15281
のパフォーマンス 15279
▁アン 15277
を担う 15277
綿 15273
登 15267
修了 15263
をインストールする 15255
あい 15253
▁10. 15252
の水 15250
御紹介 15250
以前に 15248
cle 15247
RM 15245
日本企業 15244
9% 15240
▁Wi 15240
の支援 15240
について話し 15237
億ドル 15237
使命 15234
公式サイト 15230
持つ 15230
原子 15229
国内外 15227
ことが可能です 15224
を重ね 15224
僕は 15222
部門の 15219
▁チーム 15210
82 15209
システムが 15209
再現 15209
高温 15209
の維持 15207
もっとも 15204
公正 15204
を教え 15201
を直接 15196
為に 15195
預金 15195
高品質 15194
船舶 15193
ated 15192
ise 15188
少なく 15182
宣伝 15179
パイプ 15177
博 15177
画面の 15177
裁 15176
を構成する 15174
驚き 15174
クリア 15168
▁cm 15167
LD 15165
飛行機 15164
▁Ltd 15162
いう 15162
▁コンピュータ 15159
高まり 15159
際の 15156
居住 15155
フルーツ 15154
乾 15143
盗 15142
受講 15139
密度 15133
ヒル 15132
故障 15128
歴史的 15127
▁自動 15123
ric 15120
わかる 15118
BO 15117
▁新作エ 15117
ミュ 15116
ビデオのダウンロードリンクを 15115
大学で 15112
北朝鮮 15099
タウン 15090
)<< 15086
プライ 15086
サイン 15083
セー 15081
候補者 15081
ris 15080
▁mm 15080
▁記事を購入 15080
結果として 15080
反映 15079
なくなる 15076
ポケット 15075
メー 15072
専 15072
薄 15072
固有の 15069
するのに 15068
を強化する 15065
素早く 15064
磁 15060
主導 15049
足を 15043
1999 15041
▁Tokyo 15041
わたし 15040
と呼ばれ 15037
と思われる 15029
プロフェッショナル 15029
にかかわらず 15028
観光スポット 15025
に入って 15024
が最も 15021
トランザクション 15017
の背景 15016
:--- 15015
Auto 15012
っていました 15008
売上高は 15008
押 15008
製造業 15000
50% 14998
の形成 14998
が表示され 14991
▁国内 14987
for 14984
▁接続 14982
への取り組み 14981
誰かが 14981
このサイト 14980
古代 14975
心の 14975
等について 14974
を通過 14973
壊 14970
▁World 14969
に応じた 14968
快 14968
化合物 14966
友 14964
レジ 14962
旅行者 14961
ナビゲーション 14954
との連携 14950
ないので 14949
埋め 14948
多数 14948
クレ 14947
彼らに 14946
ギリシャ 14943
けば 14942
を挿入 14941
ご質問 14939
を代表する 14939
基本的に 14937
の所有者 14936
手で 14936
▁YouTube 14935
楽器 14935
等は 14934
自信 14930
ワイヤレス 14928
普通 14925
ning 14921
マッチ 14919
取り外し 14917
ツリー 14915
over 14914
▁以下 14905
キン 14905
の支払い 14903
樹脂 14903
を示し 14902
全世界 14900
バンク 14899
ジョブ 14896
に設定 14895
メッセージを 14892
参画 14889
▁2) 14888
駐 14888
オリジナルの 14886
info 14884
まるで 14882
プロセスは 14881
見込み 14881
ゆっくりと 14880
銀河 14878
申込 14877
気に 14876
全般 14875
ルーブル 14873
▁一方で 14872
処 14872
付与 14869
学科 14866
潜在的な 14866
長期的な 14863
9000 14858
暖かい 14858
ジャンル 14854
視野 14853
ブロ 14852
ないと 14851
ブレスレット 14850
触れ 14848
ハンドル 14844
禁 14844
▁最近 14841
と考える 14837
si 14833
使われ 14831
チベット 14830
XNUMX 14829
▁r 14829
クラスの 14828
ピンク 14828
2004 14826
出来事 14826
ソフトウェアの 14825
覆われ 14825
カンパニー 14824
リファレンス 14821
クラシック 14815
わが国 14813
学生の 14813
石炭 14811
可能な限り 14810
遺 14805
年金 14803
HO 14802
持っている 14802
プロセスの 14801
龍 14801
地の 14799
ik 14798
▁Service 14797
道具 14797
扱い 14796
の開始 14795
レンタカー 14795
候補 14794
崩壊 14793
発送 14793
ave 14789
反射 14786
可能性が 14783
を含みます 14781
業界で 14779
-10 14775
幅広く 14774
抱 14770
使われる 14768
▁当サイト 14766
ミャンマー 14766
技術者 14765
領 14763
瀬 14758
cl 14755
許容 14752
呼び 14751
1.0 14743
地下 14743
武器 14743
を保証する 14742
第三 14740
-7 14736
講座 14736
植え 14734
ブリッジ 14732
郎 14732
がたくさん 14728
を与えます 14728
▁テキスト 14726
納 14723
を得るために 14721
を解除 14720
本体 14720
▁個人 14712
に位置し 14710
を用意 14708
思います 14707
活動の 14707
返金 14707
ations 14705
執行役員 14705
▁必要な 14704
量子 14703
にくい 14699
天井 14698
暗号 14693
mod 14692
委員会の 14692
の運営 14687
まって 14683
精密 14680
区別 14679
垂直 14679
画像を 14678
広場 14676
理念 14673
介護 14672
完成した 14669
の利点 14667
書き込み 14667
の機会 14666
ありがとうございます 14665
分野における 14665
るか 14664
事務 14664
を扱う 14663
シュー 14663
サム 14660
事務局 14660
▁7. 14659
なくなった 14659
奨励 14653
▁AI 14651
fer 14648
フライ 14648
珍しい 14647
かね 14645
偉大な 14641
爆発 14641
棚 14639
ベンダー 14637
手の 14637
基地 14634
Port 14632
ull 14631
定め 14630
スキーム 14629
小学校 14627
かせ 14625
目的の 14625
芸 14625
コンテスト 14621
立つ 14620
伝達 14619
カイ 14618
を展開し 14614
イラン 14607
▁all 14604
ハイブリッド 14602
▁Dis 14597
ツールは 14597
受け入れ 14597
人数 14596
ダイヤル 14594
震災 14594
購読 14592
側に 14590
ようになり 14586
滝 14582
mit 14581
▁Extension 14579
ラボ 14578
なった 14575
をつけ 14575
講 14575
賞を受賞 14572
毎月 14571
▁何 14569
ポップアップ 14561
KO 14559
DM 14558
の距離 14556
の際に 14556
tory 14555
の活用 14553
ありがとうございました 14548
-6 14547
▁ST 14546
DNA 14539
地域社会 14539
適正 14539
づ 14537
増加する 14532
と述べた 14524
することも 14521
単純 14521
地球の 14520
▁Live 14519
ゴン 14519
こちら 14518
CP 14511
をご確認ください 14511
生物多様性 14508
▁« 14507
あの 14506
▁バージョン 14504
もらい 14501
表明 14501
ds 14500
OD 14498
▁ゆんフリー写真素材集 14498
順序 14496
展望 14492
を見つけることができます 14491
個人情報保護 14490
ドライ 14489
▁or 14488
▁page 14484
を問わず 14483
▁ですから 14480
▁以上 14478
数が 14478
rid 14476
を担当 14476
安い 14475
振興 14471
閉鎖 14469
▁For 14465
の建設 14462
慶 14461
遅く 14460
▁they 14456
セクター 14455
ウェル 14454
中東 14454
ユニバーサル 14452
ya 14449
現地の 14448
続けています 14446
gg 14445
▁ソリューション 14444
襲 14442
のご 14441
明確に 14439
規約 14439
楽しく 14438
本人 14437
スペ 14436
施行 14433
はじめ 14432
▁Go 14425
担保 14425
表示される 14424
いろいろな 14421
問題の 14421
という言葉 14416
▁それぞれの 14415
無駄 14414
情報はこちら 14412
を付け 14411
確立 14411
詰め 14411
解消 14410
の意味 14409
他人 14409
透明 14406
ng 14405
かない 14403
このように 14401
モデルの 14400
▁京都 14396
▁Ac 14394
いだ 14393
化学物質 14393
に定める 14392
価格で 14390
▁Music 14389
ものだ 14387
談 14387
の新 14385
外の 14384
と思って 14378
程度の 14378
のサービス 14376
を作ります 14375
羊 14375
▁プレスリリース 14374
少数 14374
コミットメント 14373
府 14372
をしています 14368
を防ぐ 14368
韓 14368
▁サン 14366
を追加します 14366
の安全 14363
▁このページ 14362
そうした 14357
木材 14354
に達する 14352
ダル 14352
事態 14350
レーター 14348
コンタクト 14347
トル 14345
町の 14345
期間は 14342
現在は 14342
OP 14341
借り 14341
どうやって 14339
呼吸 14334
健 14333
で構成され 14331
国で 14327
知らせ 14327
願い 14327
TRA 14323
者を 14321
ちゃ 14319
接着 14319
なくて 14318
▁9. 14316
10% 14314
▁アル 14311
はい 14311
バーチャル 14311
▁組織 14308
復 14308
ミックス 14307
指数 14307
紀 14301
見直し 14299
に移動します 14289
SSD 14288
LT 14284
などにより 14284
もはや 14284
直ちに 14284
相互作用 14283
GO 14281
250 14279
サイエンス 14278
’ 14277
日現在 14277
rial 14273
GE 14272
遠隔 14272
東北 14271
簡単で 14271
であるが 14269
ができ 14268
プレイリスト 14261
っていく 14256
のページ 14256
販 14255
欠陥 14254
MC 14251
アリ 14251
にあった 14249
▁Instagram 14246
流行 14245
に準拠し 14242
SDGs 14241
初めての 14241
ring 14238
中小企業 14237
顧客に 14236
の成功 14230
効 14230
引数 14229
承 14228
正規 14227
稲 14223
お知らせ 14222
ヘッジ 14219
けれど 14217
としている 14215
割合 14215
覚え 14215
UT 14213
ことを確認してください 14213
1.1 14208
CPU 14199
泡 14199
▁He 14196
問い 14195
室内 14195
92 14188
した場合は 14186
タイヤ 14186
プログラムを 14185
性の高い 14185
高精度 14185
電車 14181
現れる 14180
与え 14179
番組 14179
Br 14177
ツー 14177
たいと思います 14176
廃止 14174
名誉 14173
FL 14171
期の 14171
方法が 14169
歓迎 14169
あなた自身の 14168
探索 14165
肺 14165
を楽しみ 14161
ぶり 14160
▁女性 14159
▁Global 14157
しますか 14156
植 14154
の平均 14153
包装 14153
▁まだ 14149
ことがある 14149
の合計 14149
ハードディスク 14149
▁北 14147
金融政策 14144
メタ 14143
みたい 14142
の作品 14139
するとき 14138
▁ファイル拡張子 14137
上位 14128
に関し 14124
▁リンク 14123
ているので 14121
前回 14120
腫瘍 14119
下で 14118
の前 14114
点は 14112
SF 14108
の端 14108
▁詳しくは 14107
同等 14105
種の 14104
代理店 14102
やはり 14101
を保護する 14100
オペレーション 14100
を選び 14096
塗料 14096
ご紹介 14095
配達 14095
ジェン 14094
▁Back 14090
に至るまで 14090
NU 14089
入場 14089
つつある 14086
イング 14085
データセンター 14085
フレームワーク 14083
COM 14081
車で 14077
録 14076
学校の 14073
呼 14070
楽しむ 14068
▁You 14066
しているか 14065
の開催 14065
▁Group 14059
を書く 14058
を目的とした 14058
控え 14058
は現在 14057
衝突 14055
に来て 14053
効果的 14053
収穫 14053
郵便 14053
掃除 14052
知られている 14052
枝 14050
演出 14049
▁Search 14046
正確 14044
わず 14043
RS 14040
矢印 14040
持続 14038
を得て 14032
▁New 14031
疲れ 14031
そば 14030
システムに 14030
囲 14026
化粧品 14024
量は 14022
を助ける 14021
不明 14021
致 14018
にアクセスする 14017
議員 14013
の分析 14012
もまた 14006
AG 14005
を始め 14005
を食べ 14004
原材料 14004
▁最新の 14002
▁Pay 14001
がない場合 13998
ブラウザー 13996
を続ける 13995
のではないか 13994
の特性 13994
必要があり 13994
iTunes 13993
取得した 13993
いずれも 13987
伝送 13982
倉庫 13981
▁個人情報の 13979
ドロップ 13976
洗い 13976
踏み 13975
ギャップ 13974
0° 13973
機能の 13971
速やかに 13970
ec 13967
安全で 13966
Ch 13965
71 13964
サステナビリティ 13964
排除 13958
合併 13954
緩 13953
直径 13952
しておく 13950
色合い 13949
基板 13948
▁2005 13947
状態に 13947
寸法 13946
ms 13945
ダッシュボード 13944
日本に 13943
ten 13940
ICT 13939
▁新規 13939
感動 13938
スティック 13936
る必要があります 13935
つもり 13932
過ごす 13932
べく 13931
ファームウェア 13931
創設 13931
子供が 13930
描画 13930
しかも 13925
を訪問し 13925
成立 13925
を行うことができます 13923
を評価する 13922
シャワー 13921
NE 13919
たびに 13918
お話 13916
同時 13916
を使用できます 13915
方々 13915
連合 13914
韓国語 13914
アプリの 13912
棟 13912
名が 13911
の普及 13910
様子 13900
年より 13896
が生じる 13893
という意味 13893
付加価値 13892
に取り組んで 13889
送り 13888
貨物 13884
委員会は 13882
マッピング 13881
緊張 13881
ics 13875
セクションで 13870
多い 13869
ことのできる 13865
テイ 13864
衣 13864
科医 13863
に最適です 13859
ッツ 13854
週末 13854
FR 13853
快適に 13853
▁社 13851
ものではなく 13851
続 13849
ood 13848
同社の 13848
問題が解決しない場合は 13848
ジャン 13847
物事 13840
遂行 13839
▁My 13838
を設け 13837
興 13837
cre 13835
本日 13834
を含めた 13832
東京大学 13832
に行って 13831
グループ会社 13829
本規約 13829
窓口 13828
どうすれば 13827
価値観 13823
繋 13823
▁質問 13821
随時 13820
にのみ 13819
原則として 13819
幸福 13819
今では 13818
はより 13816
待って 13813
NT 13812
FX 13811
できました 13808
を有効に 13808
オーブン 13806
ative 13805
を認識し 13803
cc 13802
洪水 13795
App 13794
発症 13794
の大きな 13793
をクリックし 13789
有用な 13786
をご参照ください 13785
94 13783
互換性のないファイル 13782
協 13782
▁LINE 13778
に入り 13772
契約の 13772
続けている 13771
の購入 13770
無効なファイル拡張子 13760
pa 13759
を継続 13759
羅 13755
が異なる 13754
指定した 13753
係 13752
通話 13749
の上昇 13748
ボル 13748
ホー 13747
IE 13745
チョ 13744
該当 13741
が好き 13740
留意 13740
RAM 13738
できなかった 13738
研究の 13736
▁ドキュメント 13735
わたしたち 13735
亜 13734
開放 13733
体系 13732
GB 13731
ベリー 13730
オーダー 13727
▁so 13724
替 13724
政府が 13719
上げる 13718
からなる 13714
▁非 13713
の終わり 13713
ならではの 13712
DJ 13704
できますか 13703
化した 13702
ProgID 13699
の低下 13698
をサポート 13698
kg 13696
ビデオを 13693
5,000 13691
柄 13690
刑 13689
ker 13685
グランド 13681
合金 13681
vis 13680
昨日 13679
無視 13679
することがあります 13678
RF 13677
経路 13677
利便性 13675
▁をご覧ください 13674
利用目的 13673
強調 13671
海上 13671
見解 13671
ヨーロッパの 13667
の技術 13666
光学 13663
新型コロナウイルス 13663
しやすい 13660
▁2006 13659
iCloud 13651
フォロー 13651
は完全に 13650
エクスペリエンス 13648
私を 13648
甲 13647
▁パートナー 13646
iss 13645
モデルは 13645
通常は 13643
危険な 13638
没 13638
わる 13637
展示会 13637
がなされ 13633
しばらく 13632
テレ 13632
▁最初に 13630
タイル 13629
の壁 13627
フィー 13627
ナイト 13624
を可能にする 13622
しないように 13619
の外観 13619
の温度 13618
アルミニウム 13617
帳 13616
▁Dropbox 13612
ミーティング 13605
およびその他の 13603
たもの 13603
ことができた 13602
を検討 13601
ゴール 13601
ことが多い 13600
トラン 13600
▁詳細は 13592
著者 13591
特長 13587
wi 13586
を共有し 13585
彼を 13582
必要性 13582
ings 13581
を図り 13578
年までに 13578
誰でも 13578
膨大な 13572
の課題 13569
ためです 13568
ナル 13566
認知 13566
良好な 13563
ブレ 13562
ビジネスの 13559
メールで 13559
指導者 13558
弊社の 13557
議会 13554
ウィンドウで 13553
は存在しません 13551
気温 13551
申し上げます 13550
mp 13549
移 13549
83 13548
FF 13548
当然 13548
吹き 13545
▁上記 13544
バグ 13544
py 13541
を正確に 13540
Cl 13538
を定め 13538
名古屋 13538
製品が 13537
内容を 13536
伊 13535
▁Cookie 13534
腕 13532
パッチ 13531
コル 13527
GS 13526
· 13526
▁全ての 13525
別途 13525
03- 13524
眺め 13524
プリンタ 13521
僕 13518
演劇 13514
▁例 13511
ドン 13507
inter 13501
がない場合は 13500
▁EU 13498
リアン 13496
0.5 13493
隅 13493
上映 13491
ブレーキ 13489
が生じ 13488
することが可能です 13486
お問合せ 13485
Su 13483
遵守 13481
▁今後も 13480
ほかの 13478
貴 13476
IG 13474
mber 13473
組成 13473
イヤー 13472
拡張子が 13472
の表面 13470
事は 13467
より高い 13462
NET 13461
を見ることができます 13461
観点から 13459
モータ 13456
ゲート 13453
シャン 13447
使用されます 13447
浦 13445
人形 13442
訴え 13442
ts 13437
ファースト 13436
明るく 13436
tal 13434
児 13433
興奮 13432
TP 13431
ケット 13431
▁Design 13430
入国 13429
に出 13424
発表した 13422
うえで 13421
フォン 13420
トラブル 13416
質量 13411
響 13411
批判 13408
名を 13406
地球環境 13404
インタフェース 13402
けれども 13396
ヤン 13393
本物の 13391
雑 13388
ium 13387
--- 13384
テラス 13384
のバックアップ 13383
の責任 13383
チャート 13381
▁View 13372
世紀の 13371
を繰り返し 13370
避難 13366
ドリンク 13350
▁Business 13341
ホイール 13340
マグ 13340
南部 13339
因 13335
を正しく 13330
以外 13330
棒 13330
有価証券 13329
誕生日 13326
お問い合わせください 13325
TT 13323
ou 13321
皆様 13321
を得た 13318
下落 13318
時価 13317
おもちゃ 13316
捉え 13314
牧 13314
しているので 13312
食料 13312
プレー 13309
審 13308
ああ 13306
パーセント 13305
房 13303
▁Air 13302
てくれます 13297
ファイルを開くには 13296
▁当社グループは 13293
▁Li 13292
に取り組み 13291
欧米 13290
製造業者 13289
暗い 13288
なんて 13287
るため 13284
ari 13282
eat 13280
下部 13276
柔軟 13276
議長 13276
もともと 13273
それ以外の 13272
尋ね 13269
のみが 13268
Me 13267
ions 13266
どのくらい 13265
語る 13264
下に 13262
人民 13256
川の 13254
のバランス 13253
技術開発 13252
天候 13250
たる 13249
医者 13248
筆 13248
請 13245
労 13244
のこと 13243
している場合 13242
の発行 13242
以下に 13242
数分 13241
で使用する 13240
の製品 13240
引っ 13240
カスタマーサービス 13238
年以降 13238
方に 13237
に集中 13236
不良 13236
スタンプ 13231
の約 13228
浸 13228
送られ 13227
部署 13227
地域に 13226
を送信 13224
を持つファイル 13223
エジプト 13223
Excel 13221
の健康 13221
充 13218
キャプチャ 13213
大幅な 13206
超音波 13204
取扱 13203
▁昨年 13202
を加え 13201
寄り 13200
if 13198
したとき 13197
わけです 13197
誤って 13197
郷 13197
を加える 13196
ome 13194
ドキュメンタリー 13194
椅子 13192
算出 13192
ビットコイン 13191
細菌 13189
美しさ 13188
英語で 13188
わずかに 13186
KE 13184
仮想マシン 13181
デバイスに 13179
避け 13174
の利益 13173
作品の 13173
雅 13173
当期 13168
万ドル 13167
昇 13166
BR 13165
お部屋 13164
する必要はありません 13163
ている場合 13163
シリコン 13160
の変動 13159
ドイツの 13157
ニュージーランド 13156
バイト 13156
を対象とした 13153
が表示される 13149
標準的な 13141
と考えている 13140
▁Play 13138
は本当に 13138
に連絡 13137
不要な 13137
の一つです 13136
ビーズ 13136
どういう 13135
のもの 13133
西洋 13133
経済の 13131
ているため 13129
フランスの 13128
other 13126
我 13122
を上げる 13121
を支援し 13121
職務 13121
に触れ 13120
形の 13120
米ドル 13120
年間で 13118
才能 13117
プロジェクトを 13115
区分 13115
に関連して 13111
頂き 13109
▁JP 13108
排 13108
日時 13107
ライブラリー 13106
大陸 13104
スカイ 13100
▁what 13097
ラック 13097
広報 13096
に移行 13095
混合物 13095
▁60 13092
当連結会計年度 13091
期間の 13091
、2013 13090
木の 13090
▁un 13089
していくこと 13088
91 13086
ランク 13085
核兵器 13085
追い 13085
ストック 13083
ory 13082
▁お客様は 13082
を務め 13077
yo 13075
次第 13074
取引所 13071
があって 13068
工芸品 13068
を適切に 13067
値が 13067
衆 13066
わけではない 13064
国際社会 13064
ている必要があります 13063
を自動的に 13063
ボタンをクリックして 13063
を紹介し 13061
学者 13061
Link 13058
qui 13056
バージョンの 13054
お手伝い 13052
が発生した場合 13051
一定 13050
薄い 13049
了 13048
ries 13047
取り付けられ 13047
賃金 13042
ネットワークの 13038
炭 13038
内容は 13037
お祝い 13036
していると 13036
ありました 13033
まえ 13033
ミラー 13028
思って 13028
のに役立つ 13027
最初は 13027
▁クラウド 13026
しつつ 13026
ですので 13021
日本政府 13021
景 13021
構 13021
ニン 13019
TH 13017
▁Office 13017
されていること 13017
ポルノ 13016
蒸気 13016
をダウンロードする 13014
学生が 13014
を設立 13012
東日本大震災 13012
res 13010
の調査 13010
でなければなりません 13009
と言った 13007
エディタ 13004
を行って 13002
ネイティブ 13002
条第 13002
ズの 12999
喜んで 12998
お金を 12997
ov 12996
rap 12995
2.5 12993
▁Mon 12993
タワー 12992
不可 12992
ポスター 12989
伝説 12987
溶接 12987
▁2003 12985
に取り 12981
クリスチャン 12981
トレ 12980
外側 12977
求める 12977
それらが 12976
!」 12975
が大きい 12975
哲学 12975
障害者 12975
ることは 12972
出会い 12967
VM 12965
を伝える 12965
私も 12964
ll 12961
ジング 12961
に備え 12960
コンパクト 12960
上限 12959
依然として 12959
燃焼 12957
がなく 12955
the 12953
の量 12953
存在する 12952
日中 12952
▁おそらく 12949
が少ない 12949
省エネ 12949
を表す 12948
上がる 12948
のようなもの 12944
Com 12941
IDE 12940
ごと 12939
▁モバイル 12938
までは 12936
あなたはあなたの 12932
ins 12929
狂 12929
時から 12925
後ろ 12912
0.0 12911
をお持ち 12911
ウォーター 12910
が可能な 12908
考えて 12908
ランチ 12907
ature 12906
グリッド 12904
ませんか 12902
を送る 12898
開設 12898
ji 12897
履行 12897
パブリック 12896
lin 12895
スピ 12894
指針 12894
▁Email 12893
安心して 12893
総会 12893
lock 12885
▁電話 12879
が含まれている 12878
する権利 12878
パイ 12878
に合わせた 12876
会社が 12875
を開発する 12874
金融商品 12870
の価格 12869
の安全性 12869
お客さまの 12866
VC 12861
han 12861
tt 12861
拡散 12861
送金 12858
成績 12857
長年 12855
応援 12854
境界 12852
多くの人が 12851
即 12850
ことである 12848
含め 12848
red 12844
他にも 12839
tter 12838
▁すべて 12838
するものとします 12838
を示した 12837
LP 12836
年前 12833
列車 12832
の設置 12830
LS 12828
生態系 12828
ゲー 12826
web 12822
違法 12821
の分野で 12817
関連付け 12813
TC 12809
JA 12808
を促進し 12807
を知って 12807
最新情報 12805
アナログ 12804
リカバリ 12801
▁Services 12800
▁当該 12800
cy 12798
の方は 12795
る可能性があります 12795
罰 12794
Cam 12793
が起こる 12792
気象 12792
公的 12791
view 12790
人生の 12790
放出 12790
未満 12788
みると 12786
▁Inter 12784
はどう 12784
▁Network 12782
協働 12781
梅 12779
環境保全 12778
少女 12769
次回 12769
▁(4) 12768
の重要な 12767
集合 12764
どこか 12763
ml 12759
素敵な 12759
インフラストラクチャ 12758
各社 12754
に行き 12752
を支払う 12749
HDD 12747
を適用する 12747
テクニック 12744
ビス 12743
▁EN 12741
学的 12739
▁Car 12737
歩き 12737
2.1 12736
▁my 12735
存在します 12734
柔らかい 12734
アレルギー 12728
線の 12726
特典 12725
プロジェクトは 12724
肩 12723
の定義 12722
水平 12719
うか 12718
、2014 12717
カップル 12717
世界を 12715
領域の 12712
ファイルを取り扱うプログラム 12711
UP 12710
私達は 12710
Star 12709
なかなか 12707
を確保し 12707
評判 12705
科学的 12701
をご提供 12700
手配 12696
を起動し 12693
検知 12693
研究は 12693
一般的 12690
ことを忘れないでください 12687
してみてください 12687
リスクを 12687
上がって 12687
出演 12686
の動作 12684
を目指して 12684
経済成長 12683
読む 12680
を明らかにし 12678
磁気 12678
▁TV 12677
ピング 12677
▁メールアドレス 12676
ラウンジ 12676
があるので 12674
▁ウェブサイト 12673
▁会社概要 12670
ことが出来ます 12670
ジャンプ 12670
チェックアウト 12670
駆 12669
を調べ 12668
畑 12668
ければ 12666
してくれる 12666
の味 12663
設計された 12663
UD 12660
UL 12660
ギャ 12660
スクリーンショット 12660
▁@ 12659
専門知識 12655
離れ 12653
お互い 12651
最も一般的な 12651
アルミ 12647
ティン 12646
近代 12641
部屋の 12641
Ag 12640
的かつ 12640
様に 12637
を見ることはできません 12636
Co 12635
授与 12633
練 12632
をよく 12631
先頭 12629
にあたって 12628
カム 12626
二次 12626
みて 12624
祝 12623
伸 12622
宗 12621
自由な 12620
ビーム 12619
語った 12618
NY 12617
ビジュアル 12617
額を 12615
▁no 12613
闘 12613
を買う 12612
技術的な 12610
エフェクト 12609
ガード 12609
イラスト 12607
カール 12607
ランダム 12607
育て 12607
世界最大の 12606
人々を 12604
▁小さな 12603
事情 12603
がインストールされていても 12602
帰国 12602
ソウル 12601
SNS 12600
▁SE 12599
に対しては 12599
を備えています 12599
普段 12598
日本は 12597
チャイ 12594
入居 12593
Uni 12592
図面 12592
光の 12591
同一 12590
▁Media 12587
流動性 12585
に記載されている 12584
を知っている 12582
ダム 12581
束 12580
したがって 12579
これからも 12577
多様化 12577
Sony 12576
を下 12576
インスピレーション 12576
本年 12576
を反映し 12575
収容 12575
リュー 12574
之 12568
MAX 12567
の内部 12567
を開始します 12567
サイトで 12567
農家 12567
ロープ 12566
生活を 12564
▁リソース 12563
経営者 12563
逆に 12563
できるようになりました 12562
ショート 12560
と思っています 12559
▁カスタム 12558
概 12555
たとえ 12553
ていると 12553
限られ 12553
見えない 12552
に依存し 12549
ding 12547
訂正 12547
紙の 12546
偏 12542
ストラップ 12541
合格 12539
聞いて 12537
関連しています 12537
▁アドレス 12531
感じた 12530
▁西 12529
ッカ 12528
dr 12525
▁ちなみに 12525
を改善し 12525
ach 12523
体内 12519
疾患の 12518
事業所 12517
難しく 12516
拡充 12515
芽 12515
マテリアル 12514
補完 12513
材料の 12512
等で 12512
経由で 12508
性的 12505
Mo 12502
を行っ 12501
ject 12498
時間に 12496
亡 12495
▁URL 12482
をチェックし 12480
BS 12477
ja 12476
ペイ 12474
思われ 12473
▁必要に応じて 12470
困 12470
起源 12470
期末 12468
笑顔 12468
らせる 12467
は次の 12466
テクニカル 12466
ark 12463
況 12463
ついた 12460
Li 12456
九州 12456
創業 12453
継続的に 12453
aw 12448
ネル 12446
ッパー 12444
SSL 12443
はなく 12442
を用いる 12442
繰り 12442
艦 12436
の他の 12433
周年 12431
文学 12431
SQL 12430
we 12430
提言 12429
フィン 12426
福島 12426
迷惑 12424
work 12416
プロバイダ 12415
北部 12415
2002 12413
スウェーデン 12413
成長する 12413
▁Corporation 12410
ウェブサイトの 12410
施 12408
▁利用規約 12406
であって 12406
ger 12404
ポール 12403
ほどの 12401
体を 12401
コンテンツの 12399
内側 12399
継承 12399
場面 12398
発言 12397
特殊な 12396
ボン 12394
連結子会社 12392
者たち 12391
首脳 12391
を回復する 12389
消化 12388
ファイナンス 12387
沿い 12384
を向上させ 12383
悩 12382
を楽しんで 12380
実施した 12380
カーボン 12378
を使用している 12376
夕 12376
▁ライセンス 12375
お客様から 12374
更なる 12373
▁Pri 12372
を押し 12372
ドラマ 12372
KI 12371
コンピュータのユーザー 12370
周囲 12366
研究員 12366
を停止 12361
エレクトロニクス 12358
クリエイティブ 12358
ることが 12357
表示されるようになった 12356
取引先 12353
技術が 12351
▁ボタン 12350
私達 12346
尊重 12345
個別に 12340
ami 12339
に成功 12339
京都大学 12338
部分を 12338
アプリケーションを 12335
vol 12334
句 12334
Key 12331
を助け 12329
エアコン 12328
公平 12326
奏 12326
否 12325
優勝 12324
場所です 12324
らい 12323
ご協力 12318
男性の 12314
セント 12313
調べ 12312
デュ 12310
ピクセル 12309
ICE 12307
▁外部 12307
詐欺 12307
具体的な原因 12301
すごく 12298
否定 12295
ファイル名の後に 12291
情勢 12290
標準設定では 12289
ディスカッション 12285
意欲 12281
させるために 12279
スピン 12279
ファイルを含むすべてのファイル 12279
新製品 12277
行います 12277
思わ 12270
く専門家に 12266
▁HOME 12265
屈 12265
管轄 12265
問題が解決しないこと 12264
サービスを要請し 12263
ファイルの取り扱いに関する 12263
意見交換 12263
▁時にはコンピュータに 12262
を診断すべ 12262
開発の 12260
火災 12259
モール 12257
UE 12255
ペーパー 12255
最終的には 12255
株価 12255
ようだ 12254
認められ 12254
ご要望 12252
以降の 12251
Se 12249
誘導 12249
GP 12248
試してみ 12245
スタイルの 12240
デル 12240
代表取締役社長 12239
Acer 12238
開発された 12238
▁採用情報 12234
フィット 12233
その時 12230
一切の 12228
喫煙 12227
渡す 12222
を保持し 12221
態度 12220
と比較 12219
▁過去 12218
バスルーム 12217
早期 12217
ヘルスケア 12216
を残す 12215
を設定し 12214
SR 12212
を受け入れ 12212
Log 12211
ek 12211
滑 12211
水分 12209
シンボル 12208
フェア 12196
文献 12196
▁具体的には 12195
スイート 12194
任命 12194
額は 12194
▁今後の 12192
シリアル 12192
レンダリング 12192
▁データベース 12191
が必要である 12189
国が 12185
激しい 12185
説明します 12185
カス 12184
平等 12184
製薬 12184
20% 12181
に表示される 12181
コンピュータの 12181
0.1 12179
の詳細については 12179
読者 12178
▁テスト 12177
熱帯 12177
オフライン 12176
を伝え 12175
ii 12173
▁ロシア 12173
煙 12173
見せ 12170
難民 12166
▁System 12165
いっぱい 12164
自治体 12164
取扱い 12161
卓 12160
財布 12160
を図っ 12159
▁メイン 12155
ことと 12155
Ex 12154
心地 12153
きっと 12152
ウォッチ 12152
冒険 12152
境 12152
間接 12151
売り 12150
市場は 12150
点で 12149
する予定です 12148
がございます 12147
軌道 12147
成人 12146
嫌 12145
よね 12144
キャップ 12144
我々が 12144
するときに 12143
それまで 12142
の力 12141
研究機関 12141
MT 12140
富士 12140
▁TRIPROUD 12139
ハイライト 12137
幼 12137
東アジア 12137
ウクライナ 12135
バイナリ 12135
迷 12135
たった 12133
緑の 12132
みなさん 12131
の調整 12129
トリック 12128
年次 12127
読み取り 12127
も多い 12126
デバイスは 12126
表彰 12126
に移 12125
を進めています 12125
寺院 12123
はあまり 12122
泉 12121
val 12119
▁フランス 12118
ung 12117
全体的な 12117
ウル 12116
革 12116
情報セキュリティ 12114
連れ 12113
を回避する 12107
しているため 12106
ひとつの 12105
サービスの提供 12105
ご案内 12104
忠 12104
染 12104
誘 12102
ているか 12101
先進 12101
OM 12100
▁ほとんどの場合 12100
点検 12093
個別の 12092
ユニ 12089
間隔 12087
FE 12085
▁35 12085
挙げ 12082
ボタンをクリックします 12081
▁プロパティ 12080
Work 12079
ファイルに 12078
の作業 12073
人材育成 12073
を確認します 12072
▁ウェブ 12069
離れて 12068
の統合 12066
なりました 12065
恋 12065
夜の 12060
でのみ 12059
執 12058
▁もう 12055
集約 12052
Pr 12050
別に 12049
日立 12049
ジャケット 12047
絶対 12043
▁Bo 12042
肝 12039
を容易に 12035
経験豊富な 12035
奪 12033
工夫 12033
速く 12028
無償 12027
カ月 12024
▁36 12023
と考えられています 12017
初期の 12017
成都 12015
就職 12014
ドラ 12012
一度に 12011
締約国 12008
を超えた 12007
物理学 12006
力が 12004
復旧 12002
いった 12001
成形 11998
根拠 11998
▁more 11997
可能性があり 11997
大幅に 11994
部長 11994
お子様 11992
の主要 11992
形式の 11989
太陽光発電 11988
ano 11987
遊ぶ 11986
▁最後の 11985
皆様の 11982
rit 11979
を使用する場合 11979
を拒否 11979
通過 11979
、2021 11978
能力を 11977
ワイヤー 11974
cent 11973
帰り 11973
踏 11972
する機会 11971
サービスが 11967
のイメージ 11965
全員が 11963
マウント 11962
を必要とし 11961
定期的な 11958
釣り 11954
Smart 11953
リップ 11953
慢性 11953
換え 11950
▁続きを読む 11945
まし 11942
目で 11941
表記 11938
▁名前 11937
性別 11937
▁多くの場合 11936
開拓 11936
▁イタリア 11933
シェフ 11932
競合 11931
オプションは 11930
ってくる 11929
を果たし 11926
日本国 11926
深さ 11926
弱い 11922
live 11921
ファイルを含め 11919
▁すでに 11918
の成果 11918
グレ 11918
過去に 11917
に参加し 11915
も多く 11915
パスポート 11914
▁加えて 11913
周りの 11912
Net 11911
自体は 11910
付いて 11909
札幌 11909
見つかり 11908
付ける 11905
を挙げ 11904
ワシントン 11904
PD 11903
特集 11903
tre 11902
する必要 11900
関節 11898
配分 11895
置き換え 11894
エントリ 11892
されていました 11891
日間の 11889
ことができるように 11886
を同時に 11886
から直接 11880
戻 11878
▁Research 11877
奨学金 11877
織り 11876
?」 11875
を強調し 11875
危険性 11874
移民 11874
隣 11872
着用 11871
軽量 11869
言われ 11866
初め 11864
動く 11862
浴 11860
敬 11855
クローン 11854
補正 11854
しゃ 11853
ということは 11853
の理由 11853
処方 11853
楽しめる 11853
社が 11853
▁This 11851
コマース 11851
▁エラー 11850
lan 11847
を大きく 11847
貼り付け 11845
マイク 11844
知的財産 11842
に行った 11840
組み込み 11840
NGO 11838
shi 11838
▁日時 11838
それでも 11837
イエスは 11837
てしまった 11836
日目 11834
あなた自身 11831
微生物 11829
どこでも 11828
ガーデン 11828
▁Remo 11827
てみましょう 11825
放棄 11825
してしまう 11822
ection 11820
津波 11819
の規定 11817
ara 11816
てしまいます 11816
テッド 11815
手動で 11810
なんと 11809
に使用する 11809
新株予約権 11809
する可能性があります 11808
ショック 11808
にとっても 11805
に転送 11805
アメリカ人 11805
知らない 11805
by 11804
とりわけ 11804
の記事 11804
倉 11804
介入 11803
環境に 11803
に入った 11799
望遠鏡 11799
を入力し 11797
声明 11797
ッピング 11793
▁he 11791
本ウェブサイト 11790
横断 11790
発揮 11790
行い 11789
の時代 11784
われわれ 11784
を満たし 11783
▁34 11782
のいくつか 11781
コンピューティング 11778
してい 11777
課程 11777
々と 11775
年生 11770
▁二 11768
めて 11767
摂取 11766
▁Di 11760
を活用して 11759
人道 11756
▁適切な 11755
ration 11753
1980 11752
oc 11752
世話 11752
WEB 11750
持ってい 11750
いずれ 11747
旗 11747
▁だまされてはいけません 11746
1998 11745
規範 11739
eak 11738
この機能 11733
オル 11733
サポートする単一の 11733
作った 11733
に入れる 11729
へのファイル変換 11728
バイク 11727
防水 11727
お願い 11726
われる 11723
選択された 11723
カタ 11722
隠れ 11715
かん 11714
の完全な 11714
年後 11714
ale 11713
次のような 11713
uc 11711
パッド 11708
に含まれ 11707
洗練された 11707
ブラン 11704
独特の 11703
需要が 11699
かわ 11698
加入 11696
book 11693
ことはできない 11693
塗装 11693
される場合 11692
ページで 11692
アンプ 11691
還元 11691
code 11690
を避ける 11690
ting 11685
▁Connect 11685
が行われる 11685
コンクリート 11685
韓国の 11685
プライバシーポリシー 11684
160 11683
セラミック 11683
毎週 11683
が必要になります 11682
の条件 11681
ッタ 11681
担 11680
を実現します 11679
▁up 11673
ak 11672
サス 11672
は他の 11671
日常生活 11670
▁33 11668
を確立し 11668
メーター 11666
明日 11665
企業と 11662
▁今日の 11653
ご覧 11651
達は 11651
応え 11650
資源の 11648
する事 11647
ゲル 11647
Samsung 11646
画像の 11646
自主 11646
を目的として 11645
使用することができます 11644
シンプルで 11643
数多く 11642
めた 11641
プログラムが 11639
実は 11638
を形成する 11636
したのは 11632
機能します 11631
中期経営計画 11624
出る 11622
180 11620
ード 11618
株主総会 11612
水が 11612
合理的な 11611
信じ 11610
に直面し 11609
出身 11607
副作用 11606
要望 11606
スペシャル 11605
来年 11605
本契約 11604
高価な 11603
のネットワーク 11602
ましたか 11598
返信 11598
式の 11597
セイ 11596
に際して 11595
ナイフ 11592
アラート 11590
男女 11590
照 11589
サミット 11587
どれだけ 11586
センターの 11586
具体的に 11585
に存在する 11584
get 11583
レモン 11581
楽天 11581
書いて 11577
氏名 11577
ボット 11571
分配 11569
365 11568
衣装 11567
の美しさ 11565
に関係なく 11564
作業を 11563
えて 11561
の登録 11561
▁オーストラリア 11560
くて 11558
▁お客様 11557
他社 11557
固体 11554
ke 11553
ness 11553
対象となる 11552
ご意見 11550
立地 11549
を掲載 11548
ペース 11547
建物の 11547
当サイト 11547
裕 11547
– 11545
▁Project 11545
者として 11545
わけ 11544
を実施しています 11544
絶えず 11543
中央銀行 11541
知りたい 11539
絞り 11539
お客様の個人情報 11537
シル 11537
コンデンサ 11536
模様 11536
▁プロフェッショナル 11535
を整え 11534
服用 11532
ドリ 11529
ラーメン 11528
理事会 11528
家電 11527
鑑賞 11527
Pandora 11523
hy 11522
ストーン 11521
おか 11520
国際協力 11519
範囲で 11518
クイック 11516
最善の 11516
タップ 11515
に変換する 11514
ドゥ 11513
全体が 11513
ものではない 11512
1997 11511
▁なぜなら 11510
を立ち上げ 11510
-00 11509
進展 11509
待 11508
の学生 11506
匿名 11506
柔軟な 11506
マーカー 11505
レッ 11504
(2 11502
と思っている 11501
クロック 11501
縦 11500
ント 11499
Sim 11498
周辺の 11498
▁白 11497
できるか 11495
従業員が 11492
じゃない 11489
アカデミー 11489
パイプライン 11487
レータ 11487
の総 11480
都市の 11480
に対応した 11479
を開け 11476
を生かし 11475
インドの 11474
の自由 11473
認可 11473
検索結果 11472
▁パッケージ 11471
判 11471
ウェー 11470
できるようにする 11469
舎 11469
今回は 11467
巨 11467
に乗って 11466
地面 11465
ョ 11462
ule 11461
▁Linux 11461
施設の 11461
を取り入れ 11458
張り 11455
戦闘 11454
審議 11453
するでしょう 11452
▁comp 11451
考 11450
ンズ 11448
学位 11447
演習 11446
atch 11445
であることが 11444
無し 11444
装置の 11443
の共有 11442
復活 11442
の前で 11440
与えられた 11440
散歩 11440
ストリップ 11439
2001 11438
私はあなた 11438
水で 11435
して下さい 11434
ヒット 11433
温室効果ガス 11433
国は 11431
機能性 11431
を調整する 11429
オプ 11427
物理的 11427
の基準 11426
を形成し 11426
▁プライバシー 11425
くだ 11425
戦後 11425
端子 11422
を許可 11421
選任 11421
をベースに 11419
▁私達は 11418
枠組み 11418
▁ヘルプ 11417
出して 11417
実際 11417
費や 11416
count 11414
第三者の 11413
SH 11411
西部 11411
含む 11409
▁クッキー 11408
にまで 11407
両方 11407
▁画面 11406
回避 11406
毎日の 11406
につれて 11405
同僚 11403
ディー 11402
1.2 11401
海外で 11401
きちんと 11399
oll 11398
tin 11398
を上げ 11398
▁日付 11396
壊れ 11396
▁Technology 11394
、2012 11393
だけでは 11393
装備 11393
ica 11390
夕食 11390
欧 11390
巡 11389
Res 11388
ことだ 11388
日には 11386
操作が 11382
参入 11381
を行っております 11380
一人ひとり 11380
▁当時 11379
されていますが 11377
注意事項 11376
するだけで 11375
書いた 11375
げる 11374
購入した 11374
▁顧客 11373
汎用 11373
ゲームを 11372
通りに 11370
ジャック 11366
埋 11364
で開催された 11363
駆け 11362
可視化 11361
現場で 11359
ley 11357
ことを可能にする 11356
産地 11356
恐怖 11355
以外に 11354
終え 11354
優秀な 11352
24. 11351
組み込まれ 11351
じゃ 11350
ュ 11350
テナント 11349
SMS 11348
ファイルに関する問題の 11347
状の 11347
へのリンク 11346
培 11345
腰 11343
コードを 11342
作られ 11342
▁開発者 11341
品質管理 11341
▁彼らが 11336
バンコク 11336
自分たちの 11336
デフォルトで 11331
トレーダー 11331
ということで 11330
媒体 11326
▁2004 11324
っております 11324
ところに 11324
取られ 11323
金銭 11322
心から 11321
メニューから 11319
恒 11318
裁判 11317
溶液 11316
を発行 11315
救い 11309
感度 11307
NC 11306
場所は 11306
文章 11302
果実 11301
部分に 11300
と同 11299
効果的に 11298
加盟 11297
▁著者 11293
繁栄 11293
黒い 11293
この地域 11292
見方 11291
たく 11290
カンボジア 11289
の業績 11288
無い 11285
ラク 11283
腕時計 11281
への参加 11280
フロア 11277
コンピュータに 11276
スーツ 11275
からだ 11274
並 11274
妙 11273
レジストリ 11269
伝え 11267
内部統制 11266
led 11265
CF 11263
添加 11263
訴 11262
述べた 11262
冷たい 11261
2,000 11260
▁弊社は 11259
柔らかく 11259
提供しています 11257
提供します 11257
ご理解 11256
設備投資 11253
信頼性の高い 11251
ハブ 11249
父親 11248
飲み 11248
場合を除き 11246
にご注意ください 11245
られて 11245
▁現在は 11243
電動 11243
用品 11242
重い 11242
gi 11240
Red 11239
渡し 11238
量を 11238
失われ 11233
なもの 11231
AVI 11226
いただけ 11225
を提案し 11222
▁Net 11221
ご購入 11220
壁に 11218
役立ちます 11218
持続的 11218
見られ 11218
神が 11217
の電源 11216
スタンダード 11210
を編集 11209
傾 11209
このオプション 11207
原発 11198
薬剤 11198
を得ることができます 11196
本格的な 11196
Al 11195
受領 11195
▁手順 11193
グループが 11192
戻って 11190
の促進 11187
ヘア 11181
国内で 11180
新宿 11178
の皆さん 11177
rea 11172
入り口 11172
事が 11169
わたしは 11166
誠実 11166
必要とされる 11163
営業利益 11161
移植 11161
《 11159
▁子供 11157
を書き 11157
とう 11156
支払う 11156
2.0 11155
▁テクノロジー 11154
に来る 11154
PH 11153
強み 11151
HS 11150
ゲノム 11149
を制御する 11146
▁Dr 11145
産業の 11145
をご紹介します 11144
にインストール 11141
の動向 11140
▁Free 11139
タオル 11139
漁 11137
▁詳細については 11134
ストン 11134
数々の 11134
燃 11134
軟 11134
キャスト 11133
写真の 11133
ney 11131
▁our 11131
あなたと 11125
述べ 11124
執筆 11123
を達成する 11121
使いやすい 11120
送付 11120
FP 11116
▁〜 11115
の目標 11115
を生成する 11115
第三者に 11115
RD 11112
を公開 11112
糖尿病 11110
混ぜ 11109
詳細情報 11108
活発 11106
で働く 11101
チェックイン 11101
訪れる 11099
場合にのみ 11098
ターン 11096
墓 11096
中国人 11091
ジョー 11089
の家 11088
orn 11085
トヨタ 11085
を保存 11084
四半期連結累計期間 11084
に移動 11082
ることができ 11082
欲 11080
余分な 11077
インパクト 11075
人気のある 11075
企業や 11075
漫画 11075
UB 11074
生存 11074
ッター 11071
ジェット 11070
の操作 11069
広げ 11068
解決策は 11067
プリン 11065
請求書 11065
my 11064
スクロール 11064
いること 11062
load 11061
不具合 11059
塗り 11058
結婚式 11053
する際 11052
は同じ 11052
世界各地 11052
を除いて 11051
輝 11051
てはいけません 11050
人種 11050
支え 11050
画面で 11049
▁彼女の 11048
流体 11048
》 11044
の多い 11043
理由で 11043
のセキュリティ 11041
tri 11039
オンラインストア 11039
リバー 11039
をもたらします 11037
成田 11036
ほんの 11035
実感 11034
▁インド 11033
すべく 11031
一年 11031
エンタープライズ 11029
知的財産権 11029
観光地 11029
-11 11028
いって 11027
サラダ 11027
不可欠 11027
構想 11023
と共有 11021
意思 11021
が難しい 11015
欠点 11015
協調 11013
周囲の 11011
を基に 11010
衛 11010
ご利用ください 11007
リストから 11005
均一 11005
▁Update 11004
Ro 11003
造り 11003
を開いて 11000
をまとめ 10996
アンテナ 10995
リットル 10995
結局 10995
役割を果たし 10993
ora 10986
こな 10986
スタッフが 10986
工具 10985
ソーシャルネットワーク 10984
二重 10981
簡 10979
▁予約 10978
原因はそれだけではありません 10978
曜 10977
ウイ 10976
lt 10975
可能である 10975
目標は 10975
を選んで 10973
甘い 10972
自然に 10972
SY 10970
が行われた 10969
不可能 10969
残っている 10967
のお客様 10965
回数 10965
▁従って 10963
かかります 10963
をサポートし 10963
oshi 10961
開催される 10961
づけ 10960
効率的 10960
▁彼が 10959
場合によっては 10959
▁Tw 10957
ヌー 10957
てくれた 10956
救済 10956
cur 10954
上から 10954
仲介 10954
をサポートします 10953
RAR 10952
独立して 10950
美容 10950
進む 10950
ose 10949
あるもの 10945
起業家 10945
▁OTFE 10943
最終的な 10942
流出 10938
ならない 10937
▁BIOS 10935
と思いました 10935
ys 10933
くれ 10933
しないこと 10933
Fe 10932
いくら 10931
VE 10930
の一部を 10929
対応の 10929
ホールディングス 10926
を調べる 10925
情報通信 10925
分からない 10924
emp 10923
vid 10918
▁オブジェクト 10918
茎 10917
正直 10915
を背景に 10914
を選択できます 10912
富士通 10912
を入れる 10911
▁一般的に 10908
はありませんでした 10902
を設定 10900
役立つ 10899
部品の 10899
皇 10897
相対 10897
し続ける 10896
比べ 10896
突き 10896
off 10893
不可欠な 10893
▁80 10892
を強く 10890
目的のために 10890
cial 10887
ラス 10883
によ 10881
江戸 10881
(3 10880
リアルタイムで 10880
の制限 10879
センス 10878
求められる 10877
▁注文 10876
の性質 10876
終了後 10874
わら 10873
をオフに 10873
eg 10870
備え 10869
というもの 10868
を拡大し 10866
グラフィックス 10866
日々の 10866
映画の 10866
ケーション 10865
誤 10865
プリンター 10864
魅力的 10862
ファイル名 10860
階層 10858
ート 10856
▁を参照してください 10852
までお問い合わせください 10852
諸島 10852
関税 10851
ATE 10847
コンサルタント 10846
要約 10846
▁お客様が 10845
を検討する 10844
塗 10843
その中で 10841
代謝 10840
表示され 10837
表示されている 10836
未来の 10834
適合 10833
への投資 10832
潮 10832
紫 10832
世界で最も 10831
地球温暖化 10831
ツールバー 10830
暴 10830
苦情 10829
レジャー 10828
視点から 10827
いても 10823
行うことができます 10821
頂く 10821
の概念 10820
契約を締結 10820
毒 10819
人達 10817
の需要 10816
30% 10815
を準備する 10815
満たされ 10814
メガ 10813
体験を 10810
着実に 10807
冊 10806
LC 10803
拍 10803
民主主義 10802
awa 10800
カードの 10798
入社 10798
日以内に 10797
back 10792
Bluetooth 10790
を記録し 10789
変形 10789
通訳 10788
長崎 10788
困難です 10787
フランス語 10782
att 10780
期間中に 10780
1995 10779
▁Sa 10779
Linux 10776
を誇る 10776
デスク 10776
写真は 10774
▁すなわち 10772
標準化 10772
のご利用 10771
メイド 10771
新機能 10771
▁8.1 10769
を経験し 10768
、2011 10761
行事 10760
カウント 10759
静かな 10758
得た 10757
合わせる 10755
江戸時代 10755
体は 10751
読み込み 10749
ものでした 10747
ようとする 10747
患者さん 10747
GT 10746
▁どのように 10745
したものです 10745
ある程度 10744
を使用することができます 10742
を増やし 10742
プロセスが 10740
広範囲 10739
織 10738
ものとして 10737
ょ 10737
揚げ 10737
ないでしょう 10733
明示 10732
創出 10731
が低い 10730
単なる 10730
ご連絡ください 10729
を取ります 10727
と言われ 10726
に戻って 10726
ons 10725
▁NTT 10724
味わい 10723
迅速 10722
ぐらい 10720
場合がございます 10719
方向性 10719
uk 10718
分野において 10718
努力を 10717
付近 10716
診 10716
るもの 10713
懐 10712
▁Plus 10711
同様 10711
への貢献 10707
進捗 10706
▁\ 10704
po 10703
耐性 10703
の欠如 10701
目的地 10701
確率 10701
省略 10700
企業に 10699
-12 10695
車を 10693
To 10692
を押して 10692
アカウントに 10691
もいい 10690
ロング 10690
広範な 10690
映画祭 10690
NTT 10689
をカスタマイズ 10689
パケット 10689
ワイヤ 10689
多くの場合 10687
急いで 10683
HTML 10682
▁FAQ 10682
の伝統 10679
多くの人 10679
360 10677
▁Blog 10676
動物の 10676
ファイルシステム 10675
古典的な 10673
日本では 10673
3.0 10672
ランス 10670
▁これには 10668
が有効 10668
Internet 10667
▁there 10667
カリフォルニア 10665
家で 10665
を知り 10664
まち 10663
頃に 10662
right 10660
全体として 10659
惑 10658
容易 10657
年度は 10656
のとおり 10654
ization 10653
▁学生 10650
となっております 10649
システムで 10648
昼 10648
理事 10648
当ホテル 10647
read 10643
カメラの 10643
スピーチ 10639
バッファ 10639
貯蔵 10638
▁» 10635
Market 10634
おう 10634
MU 10630
は自動的に 10630
マガジン 10630
管理システム 10630
教材 10629
▁Report 10626
、2010 10626
が正しく 10626
典型的な 10626
停 10625
磨 10624
の意見 10622
正常に 10621
供 10614
数回 10611
ほうが 10609
カードを 10609
拡大する 10609
生体 10608
記入 10607
野生 10606
ウィザード 10605
推測 10601
できない場合 10600
全体に 10600
来て 10599
▁ユーザーは 10598
CON 10595
▁Information 10593
が作成され 10593
文化的 10593
回目 10592
の紹介 10591
干渉 10591
をお楽しみください 10590
スペイン語 10589
国際空港 10588
されてきた 10587
を聞く 10587
産業用 10587
またはその 10586
望ましい 10584
ler 10582
連動 10582
▁Power 10581
委員長 10581
書面 10581
▁people 10580
Instagram 10578
提供されます 10578
落とし 10578
何かを 10575
アイデンティティ 10574
移住 10574
ゴミ 10572
▁サステナビリティ 10571
▁II 10570
▁¶ 10569
ではありませんが 10569
後者 10569
許諾 10568
の承認 10567
採択 10566
▁シンガポール 10564
してまいります 10563
▁シェア 10561
幹 10561
ついて 10559
右上 10557
日程 10555
祝福 10553
を共有 10551
シェー 10551
ビッグ 10551
▁定 10548
フィンランド 10548
ことを可能にします 10546
てから 10544
割引コード 10544
正常 10544
が行われました 10543
鑑 10542
視聴者 10538
カーソル 10537
自身が 10537
新株予約権の 10535
バレー 10533
:10 10532
クルマ 10531
姿を 10530
料理を 10529
方も 10529
変異 10528
の現状 10526
▁Ba 10525
シリーズの 10525
っぱ 10523
どれ 10523
の性能 10523
できれば 10521
保護者 10521
座席 10520
サラ 10517
休憩 10517
数を 10517
ファイルから 10515
種子 10515
に寄与する 10514
年代に 10514
過剰 10513
が完全に 10510
発現 10510
渋谷 10509
リボン 10508
に該当する 10507
環 10504
の皆さま 10502
だろうか 10501
上級 10501
治療法 10500
お得な 10499
を考慮して 10499
ミルク 10498
仕事の 10495
face 10494
割り当てられ 10493
エディター 10492
蓄 10492
の最適化 10491
やり方 10491
を紹介する 10491
空き 10490
利用する 10489
を遵守し 10487
フラット 10487
速い 10487
マネ 10484
▁Manager 10483
に使用される 10482
セキュア 10482
言葉を 10481
ケイ 10480
ダイナミック 10479
世界各国 10479
トマト 10477
手動 10476
銃 10475
人工知能 10473
入金 10471
Direct 10469
の上で 10469
スノー 10469
流れる 10469
賜 10468
が良い 10466
年前に 10464
有効化 10464
取り組む 10462
が完了し 10461
位置に 10461
沼 10461
Te 10460
▁Software 10459
に見える 10459
▁内部 10457
人で 10456
hai 10454
vers 10454
パルス 10452
るのは 10451
てまいりました 10448
ハラ 10447
▁Outlook 10445
MR 10444
スティ 10442
ウス 10440
トーン 10440
該当する 10439
▁更に 10438
そうと 10437
両社 10437
孔 10437
顧客が 10437
▁Express 10436
フラグ 10436
▁ソース 10435
受託 10432
楽しんでいただける 10431
Enter 10427
SHO 10427
▁パンドラ 10426
ense 10424
に到着 10424
立ち上げ 10424
Cal 10422
Ti 10421
の影響を受け 10421
プロキシ 10421
▁Language 10420
ace 10419
が存在し 10419
フィル 10419
さら 10418
階段 10418
つなげ 10416
を描き 10413
ita 10411
揺 10410
を訪れ 10406
探し 10404
札 10403
SL 10402
単一 10402
挙 10402
ware 10401
を印刷 10401
仏教 10401
価額 10401
▁Man 10400
を抱え 10400
著 10400
の損失 10399
ei 10398
のさらなる 10398
を占め 10398
招 10398
月まで 10398
▁国立天文台暦計算室 10397
伺 10396
2022 10395
su 10394
▁One 10394
漁業 10393
IV 10391
設定を 10391
させることができます 10390
クルー 10390
究 10390
アカウントを 10389
れます 10388
勧告 10388
生涯 10388
東部 10387
ときには 10386
が追加され 10384
ないよう 10384
進められ 10384
ea 10380
来ました 10380
.10. 10379
▁ANA 10379
ることを 10378
伝える 10376
マット 10375
▁CA 10374
するので 10374
▁ドイツ 10373
ときの 10373
の大部分は 10373
ページに 10370
成長率 10370
限られた 10369
高校生 10368
Prof 10367
指名 10367
6) 10366
を選択すると 10366
責任を負いません 10366
によるもの 10364
を考慮する 10363
最も人気のある 10362
の旅 10360
カリキュラム 10360
返済 10360
を支え 10359
チェコ 10355
1996 10353
歳以上 10353
平線に一致する時刻 10352
迅速かつ 10352
▁ご利用にあたって出入りの時刻は 10351
nt 10348
▁8. 10348
動機 10347
追求 10347
クラッシュ 10346
汚 10344
▁dis 10343
はある 10342
は一切 10342
ニス 10342
見込まれ 10340
出てくる 10339
摂 10339
文化財 10339
メモリー 10338
有益な 10338
明確 10337
率が 10336
ベータ 10335
医療機器 10332
▁Tool 10331
▁Share 10330
をつくる 10330
を終了 10329
寒 10329
理想 10329
制定 10328
表面に 10328
トラッキング 10326
なかった場合 10324
生まれる 10322
ile 10320
外付け 10320
存在しない 10320
自然と 10319
誇 10318
すべての人 10315
リチウム 10315
答 10315
で構成されています 10314
▁time 10311
割当 10310
大量 10307
の最 10302
取材 10302
うこと 10300
ご参加 10299
Cr 10298
soft 10298
SHI 10297
▁Company 10297
デバイスで 10296
モバイルデバイス 10296
▁su 10295
原油 10293
帽子 10293
をとり 10292
イタリアの 10289
の詳細は 10287
英語の 10287
フラッシュドライブ 10286
スパイス 10284
晩 10282
を処理する 10280
性格 10279
ということを 10278
▁Enterprise 10275
の有無 10275
fin 10274
mark 10270
隆 10270
霧 10270
▁この記事では 10268
およびその 10267
動画を 10267
選出 10267
始めて 10266
植物の 10266
の主要な 10265
どんどん 10264
飛 10264
人員 10262
ib 10261
吹 10261
刺 10260
励 10260
世界経済 10259
地帯 10259
が大幅に 10257
こだわり 10256
の話 10256
▁Ge 10254
続けます 10253
▁共有 10249
留め 10249
を受けました 10247
唱 10246
天国 10246
の声 10245
新設 10245
狭い 10245
プレッ 10244
und 10243
ギター 10241
Si 10240
JP 10238
はどのように 10237
タングステン 10237
年末 10237
情報や 10237
の姿 10235
を引き起こし 10234
カルチャー 10232
力と 10231
▁弊社の 10230
せて 10229
を見つけること 10229
press 10228
マネージャ 10226
の仕組み 10225
ウェ 10225
訪れ 10225
近隣 10225
したい場合 10224
LNG 10223
景観 10222
凍結 10220
かなりの 10219
以前は 10219
青年 10219
GDP 10218
ないか 10218
ESG 10217
侵入 10217
いただけるよう 10216
中毒 10216
é 10215
を見ると 10215
チリ 10215
救 10215
せい 10214
▁like 10212
集め 10212
▁ベトナム 10211
すことができます 10211
ていない場合 10211
奈良 10211
AGE 10210
▁Win 10210
フレーズ 10210
豊富 10210
質の高い 10210
ように見える 10208
外国語 10208
public 10206
を常に 10203
飾り 10203
通報 10201
使用され 10200
IX 10199
チック 10199
量が 10198
ev 10195
▁On 10195
★ 10195
再開 10195
Firefox 10193
承諾 10193
収録 10192
情報提供 10192
shop 10191
南アフリカ 10191
軒 10191
われた 10189
ヘッダー 10189
▁大阪 10188
お使い 10188
することが可能 10187
がまだ 10185
菜 10185
似ています 10184
貯 10184
するような 10183
オートメーション 10180
堪能 10180
を遂げ 10178
新年の 10177
鮮 10176
の街 10175
ネイ 10175
されたもの 10174
巨大 10173
漢 10173
af 10170
先進国 10170
加盟国 10168
ソリューションは 10167
リフト 10167
変わった 10166
ink 10165
イスラム 10164
ルーター 10164
を尊重し 10161
関連会社 10161
運航 10160
パル 10159
同志 10157
コロ 10156
その後の 10155
だからこそ 10155
段ボール 10155
関西 10155
あなたのコンピュータ 10153
MM 10151
ike 10150
同盟 10150
完 10150
様の 10150
▁MAX 10149
詞 10147
お気に入り 10144
どちらか 10144
キリスト教 10143
競 10143
に与える影響 10140
を十分に 10140
ハム 10140
巣 10139
慣れ 10137
拘束 10137
ENT 10136
をチェックする 10135
を考慮し 10134
メタデータ 10133
▁重要 10132
を分析し 10132
を始めた 10130
長時間 10130
塚 10128
多彩な 10128
注目を集め 10127
を保つ 10126
INTEL 10121
を広げ 10118
▁Top 10117
た場合は 10117
フォーカス 10116
判決 10115
自国 10115
発電所 10113
及びその 10111
陥 10111
音響 10110
に資する 10109
ドライバをインストールする 10109
使われている 10109
に提供する 10107
使って 10105
法務 10105
sign 10103
の部分 10103
前進 10102
▁ASUS 10100
お話し 10098
インテル 10098
象 10098
テント 10097
がいる 10095
直す 10095
資金を 10095
が含まれる 10094
▁結論 10093
積み 10093
ゆっくり 10092
ようにしてください 10092
終わった 10090
身につけ 10090
に反映 10089
トリー 10088
とにかく 10086
ォ 10084
Netflix 10083
は次のとおりです 10079
スキップ 10079
示す 10077
聞く 10077
AA 10076
牛乳 10074
コム 10073
鹿 10073
ここから 10072
に応え 10072
を取得し 10072
その理由 10071
争 10070
踊り 10070
バブル 10069
があるため 10066
▁Photo 10063
▁get 10063
した後に 10060
適しています 10059
▁GB 10058
を減らし 10057
物理的な 10057
内外 10056
姉妹 10056
ments 10055
セールス 10055
ord 10054
が少なく 10054
インターネットに接続されている 10054
ながらも 10053
細胞の 10053
落ちる 10053
である場合 10052
▁スマートフォン 10048
可能性を 10048
実質 10047
▁Us 10046
邦 10045
を必要とします 10044
▁out 10043
世代の 10043
夕方 10043
悲 10040
沿岸 10040
できるため 10039
にログイン 10039
の知識 10039
影響を与え 10036
影響を与える 10036
Dis 10035
を立て 10035
Reg 10033
list 10033
▁rights 10033
冠 10033
中期 10032
のもとで 10031
るような 10030
天然ガス 10030
を調整し 10029
数十 10029
本サイト 10029
ていきたい 10027
技能 10027
右側 10026
技術や 10026
銘柄 10025
2030 10022
ute 10021
と思い 10021
元気 10021
有効期限 10019
退職 10019
事象 10017
▁個人情報保護方針 10016
お送り 10016
Win 10015
面接 10014
お客様と 10011
とは何ですか 10011
水道 10011
准教授 10010
本投資法人 10010
得意 10007
汁 10007
活発な 10005
翼 10005
石の 10002
を見てください 10001
アクセ 10000
の一人 9999
ザン 9997
受け入れられ 9997
サイトに 9994
票 9991
を決定 9989
月より 9989
ベルギー 9988
録画 9988
披露 9982
状況は 9982
非常に重要です 9982
トランプ 9978
▁reserved 9973
冷凍 9970
を作ることができます 9969
イラク 9969
夜に 9969
煮 9968
のを助ける 9965
会計基準 9965
被害者 9964
デュアル 9963
働いて 9963
によるものです 9961
アプリを 9958
杯 9958
物質の 9958
スムーズに 9957
チャーム 9956
却 9955
考察 9954
の計算 9952
左側 9952
店内 9952
迎え 9950
阿 9949
ことに注意してください 9948
レール 9948
前から 9945
思想 9944
に住む 9943
を追求し 9943
ウォーカー 9943
儀 9943
チェックボックス 9942
ドーム 9940
この種の 9939
に関する事項 9939
thing 9938
日本人の 9938
清潔 9934
一人で 9933
劣化 9928
のトップ 9927
ございます 9926
特別に 9926
に落ち 9925
意志 9925
bin 9924
を活かし 9924
スー 9924
翌日 9924
開催された 9924
鳴 9924
ブー 9922
粒 9920
とはいえ 9919
を起こし 9919
メッシュ 9918
ミュージアム 9917
丁 9917
裂 9917
準拠 9916
...... 9915
と言いました 9915
統括 9912
ていない場合は 9911
に注意してください 9910
レプリカが 9910
患者は 9910
source 9909
永久 9906
▁だが 9904
ファイル形式 9903
推薦 9903
▁マルチ 9902
を思い 9902
滑らか 9902
始まる 9900
za 9899
にならない 9899
つぶ 9897
参加者は 9897
マラ 9896
▁38 9894
の有効性 9894
子宮 9894
を備え 9893
掲げ 9893
を組み合わせる 9892
▁従来の 9891
銀行の 9891
▁IR 9886
彦 9886
潜在 9885
クライ 9884
エントリー 9878
トラブルシューティング 9878
持続可能性 9878
鉱物 9878
の幅 9877
key 9875
もう少し 9875
授 9875
III 9873
を意味する 9873
それで 9872
みた 9872
アプリケーションが 9871
人たちが 9870
がよく 9868
を教えてください 9868
動作します 9867
宇 9867
男の子 9867
シリア 9865
ND 9862
数日 9862
熱い 9862
税務 9860
自分自身を 9860
枚の 9859
区域 9858
架 9858
の真ん中 9857
頃から 9857
青い 9856
充填 9854
譲 9854
した結果 9850
表情 9850
かれた 9848
の言葉 9848
デバイスが 9848
お知らせいたします 9847
尚 9846
Mod 9845
ail 9844
引き出し 9843
したときに 9840
ベルリン 9840
保有する 9840
鎖 9839
またはその他の 9835
効力 9835
前期 9833
数千 9833
ご提供 9832
サービスを提供しています 9831
ラーニング 9831
免責 9831
ンス 9830
▁タブ 9829
業務執行 9827
1970 9826
が生まれ 9826
改定 9826
学生は 9825
代金 9824
件数 9823
選ばれ 9823
の自動 9822
を入れて 9822
幸 9822
モル 9820
▁Rights 9819
Up 9818
増加した 9818
を押す 9817
地下鉄 9817
苦労 9816
電磁 9816
コミット 9815
体に 9814
日本から 9814
ct 9813
グッズ 9813
ッシング 9811
特有の 9811
望んで 9810
態 9809
tic 9808
司法 9806
ホル 9805
先行 9805
を出し 9804
▁Ver 9802
の共同 9802
それ以上 9801
がとても 9800
ダウンロードできない場合 9800
取って 9799
料理の 9798
現在では 9798
瓶 9798
ビジネスモデル 9797
ボウル 9797
していただく 9795
百万 9795
私にとって 9795
をサポートしています 9794
110 9791
の代表 9790
急速な 9787
に限り 9785
だと思う 9784
利用可能です 9784
電波 9783
ship 9781
機能と 9781
終了する 9781
暖 9780
みる 9779
バルブ 9777
創作 9777
づく 9776
自分たち 9776
食物 9775
▁1: 9774
したいと思います 9773
システムが自動的に 9773
たいという 9772
は大きく 9771
WordPress 9770
ウォー 9770
英国の 9770
曲げ 9769
装置は 9769
した上で 9768
▁確かに 9767
ロイ 9767
ユーザー名 9765
可能性が高い 9765
対象の 9765
掛 9764
有用 9762
重視 9762
ray 9761
グルメ 9761
アンインストール 9760
に合った 9757
を飲む 9754
▁one 9751
トレイ 9751
ご自身の 9750
たとき 9748
を確保するため 9745
徹底的に 9744
支店 9744
勇気 9743
求められます 9743
アドバイザー 9741
がなければ 9740
垣 9739
は主に 9737
クー 9736
▁会場 9735
被災地 9735
に従ってください 9734
メイ 9734
自家製 9734
体が 9733
行動を 9733
婚 9732
強力 9732
Ad 9730
業種 9730
輝き 9728
実行されます 9726
▁TOP 9724
ギー 9724
駅から 9722
生じ 9721
高価 9721
所在地 9720
朝鮮 9720
祈 9720
立案 9720
だれ 9719
▁スペイン 9718
えば 9718
僕の 9718
▁自動更新 9715
かどうかを 9713
試料 9713
言わ 9711
ことにしました 9708
小児 9706
の最終 9705
一切 9705
恵 9705
MIDI 9703
今も 9703
fl 9701
受け付け 9700
集まって 9699
成果を 9698
機械学習 9698
累計 9698
表示する 9698
site 9693
を避け 9693
▁詳細ページ 9692
お使いのコンピュータが 9692
創造性 9692
毎に 9691
base 9690
ヨハネ 9689
ANA 9687
減速 9687
見ることができる 9685
ホステル 9683
▁結局のところ 9682
イギリスの 9682
シール 9681
オープンソース 9680
つ星 9679
いずれかの 9678
を開始しました 9678
同じく 9678
に起因する 9673
腫 9673
質問を 9673
▁Sign 9672
日曜日 9672
生きている 9672
クルーズ 9671
湿度 9671
を特定する 9668
太陽の 9668
壮大な 9666
されるため 9664
動か 9664
準備ができています 9663
の半分 9660
大いに 9658
クリスマスツリー 9656
の上部 9654
以下のとおり 9654
モチーフ 9653
同国 9650
を希望する 9649
現れ 9649
OC 9647
この記事 9646
バッチ 9645
回目の 9645
などから 9644
カロリー 9643
中でも 9643
▁SD 9642
適正な 9642
ブート 9641
干 9641
アナログレコード 9640
絶縁 9639
ニャ 9638
社員の 9638
金融市場 9636
lect 9635
クリックしてください 9635
の目的は 9634
数百 9634
▁39 9630
に参加した 9630
を務める 9630
さい 9629
を打ち 9629
を促す 9626
好調 9624
快適 9624
遅 9624
破損した 9623
合法 9622
UR 9621
▁サーバ 9621
▁ヒント 9621
コーチ 9621
フィールドに 9621
記者 9621
each 9619
▁3) 9618
ピアノ 9618
古代の 9618
換算 9618
秩序 9617
ことは不可能です 9616
デバイスのドライバを 9616
沢山 9616
ホルダー 9615
終わる 9615
ことが大切です 9614
シルバー 9613
柔 9613
利用者の 9612
その日 9611
の精神 9610
を排除する 9609
一時的に 9609
鋭 9609
Add 9608
そうだ 9608
トリガー 9608
今は 9604
取り組んで 9604
コントローラー 9603
変わります 9603
nn 9602
Ste 9601
爪 9601
セラー 9600
現時点では 9598
噴 9597
二酸化炭素 9596
それによって 9595
BT 9593
との間の 9592
切れるか 9592
を作ること 9587
径 9587
機密 9587
どうぞ 9586
Skype 9584
APU 9583
が続く 9583
ペル 9580
ls 9579
rad 9577
シグナル 9576
生息 9576
もあった 9575
を取得します 9575
あら 9574
こともあり 9574
決意 9574
イベント情報 9573
時期に 9573
UM 9572
に非常に 9572
溝 9571
作物 9569
どれほど 9565
起こります 9564
著しく 9562
適切なプログラム 9562
を聞いて 9561
の通り 9558
-01 9557
指揮 9557
の充実 9555
となっており 9554
個人的に 9554
最近では 9554
潜 9554
年代の 9552
ean 9551
を搭載した 9551
欠かせない 9551
KA 9550
chan 9550
add 9548
広め 9547
全国の 9545
向かい 9545
因子 9543
▁Download 9542
催 9542
加え 9542
集積 9542
飲 9542
を重視し 9541
復帰 9541
位置づけ 9539
IST 9537
が正常に機能するためには 9537
抑え 9537
しかない 9536
に対応し 9536
グロ 9536
を説明する 9535
若しくは 9534
ていなかった 9532
発生します 9532
tern 9531
の期間 9528
の風景 9528
想い 9528
クリーニング 9527
大切 9527
サードパーティ 9525
をあなたのコンピュータに繋げた 9524
Coll 9521
GR 9521
▁ニューヨーク 9521
たくない 9521
標準の 9521
の見直し 9520
▁app 9519
の最新 9518
を検出 9516
に一時的にインターネット接続が 9515
デバイスの接続後 9515
無く 9515
発足 9515
GI 9514
信号が弱すぎて 9514
過程で 9514
CB 9511
ender 9511
ook 9511
社会に 9511
と言われています 9510
状態の良い 9510
グレード 9509
▁SDK 9507
半島 9507
独自 9507
ことを確認する 9506
ころ 9504
より大きな 9504
一括 9503
コンパイル 9502
すばらしい 9501
あらゆる種類の 9495
の中央 9495
金型 9493
込め 9492
がありますか 9491
グラン 9490
の供給 9488
にあたっては 9487
多くの人々 9487
せない 9483
お土産 9482
ベンチャー 9480
たちに 9479
▁詳細経路情報 9478
ご確認ください 9478
クラフト 9478
かける 9477
数え 9477
時まで 9477
yn 9476
に移動し 9475
インテリジェント 9474
選ばれた 9474
生物学 9470
を最大限に 9469
リーグ 9469
声を 9469
ACE 9468
お読み 9468
るための 9466
事業展開 9465
一貫性 9463
取り扱う 9463
選択します 9460
を準備し 9457
ソーラー 9456
手順は 9453
そのインストール 9452
▁まずは 9450
dia 9449
▁Mobile 9449
ホスティング 9449
薬品 9447
ユダヤ人 9445
リュ 9445
畳 9445
地位 9444
ごく 9443
している場合は 9443
符 9443
顧客は 9442
説明会 9441
に対応するため 9440
拾 9440
尊 9439
店舗を見て 9439
コンテキスト 9437
ウィジェット 9436
企業として 9435
はさらに 9433
グローバル化 9433
eb 9432
するのに役立ちます 9431
メンズ 9428
を信じ 9427
世帯 9427
を低減 9426
代表取締役 9426
BE 9425
TX 9425
使用します 9425
たいと考えています 9423
パーティ 9423
投与 9422
アプリは 9417
走り 9417
アップル 9415
で開催 9414
今や 9414
AZ 9413
仮想通貨 9412
立体 9412
ッティング 9411
キャンバス 9410
周期 9410
▁XML 9409
に提出 9409
の測定 9407
おいて 9406
検索エンジン 9406
のコスト 9404
Play 9401
入手可能 9401
▁こちらの 9400
学長 9399
gin 9397
▁タグ 9397
をテーマに 9397
キリストの 9397
理学 9397
のほとんどは 9395
続けて 9394
▁think 9393
▁メソッド 9393
そうでなければ 9392
航空会社 9392
友好 9391
高品質な 9390
の香り 9389
方法があります 9388
日本経済 9388
に影響を与え 9387
神様の 9387
高齢化 9387
価値がある 9386
Japan 9385
アクティブな 9383
新興国 9382
述べています 9382
作動 9381
所定の 9380
エンゲージメント 9379
-9 9377
口コミ 9376
曲線 9374
Open 9373
の設立 9372
世界遺産 9372
の使い方 9371
アク 9371
歴史的な 9369
br 9368
の検討 9366
そこには 9364
小規模 9363
工場で 9359
若手 9357
インディ 9356
営業時間 9356
行っている 9356
VO 9354
村の 9353
ディナー 9351
重複 9348
写真家 9345
健全な 9344
AWS 9342
レイン 9341
▁Azure 9340
パキスタン 9340
世紀に 9340
勤 9340
オーク 9339
かについて 9337
オペレーター 9337
品質の 9335
サインアップ 9333
街の 9333
CHA 9331
ゾン 9331
を確立する 9330
パウロ 9330
一時的な 9330
泥 9329
自社の 9329
3/ 9328
の要求 9327
に注意 9325
VI 9324
ミル 9322
放射 9322
▁Can 9321
を特定し 9321
店で 9320
場合もあります 9318
工場の 9317
残念 9316
改訂 9315
遺産 9315
8% 9314
‐ 9313
テクスチャ 9312
筒 9312
に慣れ 9311
モダンな 9311
ヘルス 9310
若干 9310
開かれた 9310
ことが出来 9309
商用 9307
Code 9303
セルフ 9303
排水 9302
獣 9302
▁当社では 9300
▁37 9299
のテーマ 9299
専門的な 9299
wa 9298
笑い 9297
▁Page 9296
同士 9292
ハート 9291
上下 9291
人にとって 9290
ライフサイクル 9288
日より 9288
星の 9288
直面 9287
あなたがあなたの 9285
咲 9285
蓋 9285
ご本人 9284
まれた 9284
選考 9284
(18 9283
▁この結果 9283
の本質 9280
世の中 9280
の確立 9279
協議会 9279
を入力して 9278
デバイスがコンピュータに接続され 9278
ライオン 9278
不適切な 9277
スカ 9274
を加速 9273
穏やかな 9272
行っています 9271
臓器 9270
ために使用されます 9267
を送信する 9267
進んで 9267
て紹介しております 9265
を大切に 9265
奇 9265
肝臓 9265
ファイルを起動するだけです 9264
できず 9263
ショートカット 9263
test 9262
▁北海道 9262
の思いの詰まった 9262
ナッツ 9262
皆様に届ける 9260
▁我々はアーティスト 9259
ようなものを厳選し 9259
素敵な音を 9259
実行される 9258
▁NVIDIA 9256
重力 9256
会談 9254
について説明 9252
▁pre 9251
オブジェクトの 9251
word 9250
モスクワ 9250
給与 9249
130 9248
剣 9247
所有権 9247
NG 9243
を結ぶ 9241
寄与 9239
ことを確認します 9238
長期間 9238
▁よくある質問 9237
宣 9237
ゼータ 9236
鉱山 9236
唐 9235
PHP 9233
も同じ 9233
アラブ 9233
提供された 9233
たのは 9232
不快な 9232
前年比 9232
スマートフォンの 9231
イニシアティブ 9230
記号 9230
ただし 9228
と同様 9228
経費 9227
幸運 9226
を決める 9223
智 9221
aku 9220
私自身 9220
以外にも 9219
とは異なる 9215
彼らを 9215
シーケンス 9214
削除されます 9213
▁プロモーションコード 9212
が必要となります 9212
実行できます 9212
jo 9209
分かる 9209
粗 9209
以下のような 9208
作品が 9207
Im 9206
同様に 9206
▁本サイト 9204
両者 9204
gan 9203
うちに 9203
ことがわかります 9203
大学大学院 9199
チー 9198
嬉しい 9198
の入力 9197
を使用している場合 9197
おこ 9196
リエ 9196
回る 9196
▁Events 9191
出産 9191
失敗した 9191
に関心 9190
んでいます 9189
海水 9188
お気軽に 9187
バックグラウンド 9187
並んで 9187
文明 9187
▁County 9186
を受け入れる 9186
効率性 9185
軽く 9185
車載 9184
で約 9183
バリア 9181
誤った 9179
されず 9177
ツールです 9177
Blue 9176
来日 9176
賭け 9176
▁Ne 9175
お楽しみ 9174
作られています 9173
スティー 9171
リーフ 9171
▁new 9169
どこで 9168
も可能 9167
は決して 9165
書かれた 9165
伸ば 9164
魚の 9160
を発表しました 9157
ソリューションを 9157
用いられ 9157
▁Library 9156
桁 9156
ってください 9155
男は 9155
▁XP 9154
保存されます 9154
に接続する 9153
リウム 9153
ling 9152
支給 9152
立っている 9152
陶 9151
の建物 9150
を決め 9148
音楽を 9148
トレード 9147
シャー 9146
を接続する 9145
サービスを提供 9145
故 9145
ors 9144
こともある 9144
ond 9143
説教 9143
▁最近の 9141
えない 9141
につながります 9141
研究では 9141
ねじ 9140
の編集 9138
影響力 9138
自律 9138
されていない場合 9137
並び 9137
od 9136
プラグ 9136
▁Reserved 9134
140 9133
gen 9133
▁Desktop 9133
サイバー 9133
敏感 9132
に伝え 9130
を目指しています 9130
のあり方 9129
遭遇 9129
養成 9129
Active 9128
start 9126
たいと 9126
アシスタント 9126
締 9126
のコピー 9125
寿司 9125
お伝え 9124
きれいな 9123
新型コロナウイルス感染症 9120
妨げ 9119
ポーランド 9117
発想 9114
ておらず 9113
の要件 9113
ものづくり 9113
使用している 9113
論理 9113
に応じ 9111
必要とする 9111
を守り 9110
チェン 9110
取った 9110
国民の 9110
延期 9110
直前 9110
秀 9110
カリフォルニア州 9109
見えます 9109
を置いて 9106
デュー 9105
の下の 9104
るよう 9104
ミネラル 9104
国際的に 9104
このたび 9103
late 9099
たいです 9099
(1) 9098
▁誰もが 9097
▁iTunes 9096
▁know 9095
賢 9095
大きさ 9094
オス 9093
継ぎ 9093
▁2002 9092
子供たちは 9092
国際的 9091
▁Life 9090
自然災害 9090
だという 9089
子どもの 9089
を測定する 9088
Name 9087
みました 9086
イル 9086
UK 9085
環境負荷 9085
頑張 9083
▁同様に 9082
▁Drivers 9081
ずつ 9081
を置き 9081
億円の 9081
COVID 9080
エンターテイメント 9080
ケル 9080
費用は 9079
音源 9079
共生 9078
オーディエンス 9077
添 9073
実施する 9072
臨床試験 9070
▁Asia 9069
アフガニスタン 9069
スライス 9069
▁link 9068
アイディア 9068
box 9067
再利用 9065
資金の 9065
粘 9064
▁see 9061
を取って 9061
法律事務所 9061
▁森 9058
との間に 9058
を駆使し 9057
忠実 9057
静かに 9057
領土 9057
用紙 9055
影響を及ぼし 9053
俳優 9052
効率化 9051
小説 9051
ご自身で 9047
に対しても 9046
モンゴル 9045
ヨー 9045
ものとし 9043
を作成できます 9043
を接続し 9041
と比べて 9038
入札 9037
拠 9036
SB 9034
が見え 9034
の数は 9034
系統 9034
途中 9034
▁スターアライアンス 9033
創立 9033
ミリメートル 9032
フォーク 9031
画面に 9030
の近くに 9029
ままに 9029
を修正する 9029
抜き 9028
他者 9027
IB 9026
iPod 9026
を意味します 9024
召 9024
短く 9024
本書 9023
判定 9022
DX 9021
car 9021
が実現 9020
hen 9019
火山 9017
風呂 9017
を定期的に 9016
ful 9014
インストールしましょう 9014
▁JAV 9013
デプロイ 9013
アジア太平洋 9010
は全く 9009
拭 9009
Ma 9008
▁Institute 9008
現行 9008
トンネル 9007
uck 9006
開催されました 9006
を利用すること 9005
フィットネス 9004
滴 9004
併 9003
▁残念ながら 9002
代表者 9001
クオリティ 9000
るまで 8999
を含める 8999
で開催される 8997
モビリティ 8997
を掲げ 8996
を把握する 8995
Audi 8994
阻害 8994
自体が 8993
▁Menu 8992
私達が 8991
ネーム 8989
快適さ 8989
水中 8987
バリエーション 8985
} 8983
走る 8983
敏 8982
ero 8981
♪ 8981
▁ところが 8978
エコシステム 8978
に分かれ 8977
データ保護 8977
拝 8977
探求 8976
Data 8975
パーソナル 8974
の使用は 8973
それとも 8972
内部の 8972
易 8971
を除去する 8970
VS 8969
レザー 8969
に配置され 8968
極端な 8968
汗 8968
怒 8967
深刻 8966
の葉 8963
が持つ 8962
連結財務諸表 8961
▁それでは 8959
Amazon 8957
ことば 8956
メーカーの 8956
音が 8956
を対象とし 8955
広大な 8955
▁CSR 8954
と考えられます 8954
であれ 8953
ておく 8950
プラズマ 8949
日本文化 8949
に役立ちます 8948
もありました 8947
手作り 8947
▁ISO 8945
▁By 8944
▁本日 8944
を開設 8944
テージ 8944
消費税 8944
するのか 8943
在住 8943
高効率 8943
名所 8942
全社 8941
辛 8941
exe 8939
ui 8939
次へ 8939
の創出 8938
ces 8935
rm 8935
チル 8935
の一つである 8934
Th 8933
ネーション 8933
っぽ 8932
デンマーク 8932
ze 8931
マッチング 8930
を占める 8929
締め 8929
を無効にする 8927
透 8925
不可欠です 8924
ONE 8923
ている場合は 8923
実用化 8923
社債 8923
要素を 8923
ハリ 8921
に乗り 8920
を保護し 8919
ドライバは正しくインストールされ 8919
機能がオフになっていると 8918
いずれの 8917
RU 8914
レンジ 8914
貸出 8914
騒音 8913
廃棄 8912
誤り 8912
ことを確認し 8911
みます 8911
ラッシュ 8911
はすぐに 8910
本プロジェクト 8909
ドライバの新しいバージョンが 8908
装着 8907
なんだ 8906
エラ 8906
利用可能であることに気付いた 8906
迷わずそれを 8906
後期 8905
トゥー 8904
健全 8902
が得られる 8900
行われている 8900
ヶ月間 8899
BB 8898
どちらも 8898
万人の 8896
に移動する 8894
楽しんで 8894
7% 8893
への移行 8893
アメリカ合衆国 8893
成熟 8893
に優れた 8892
真っ 8890
議決権 8890
器具 8889
衰 8889
ural 8888
watch 8888
ガソリン 8887
YA 8886
^ 8886
を組み合わせた 8886
ever 8885
▁実は 8885
の枠組み 8884
クリエイター 8882
相関 8880
輝く 8880
▁いいえ 8878
▁but 8877
ものがあります 8876
era 8874
見逃 8874
オーストラリアの 8873
使っている 8873
このページ 8872
を防ぐために 8871
マルウェア 8871
llow 8870
推 8870
握 8868
外部の 8867
ブドウ 8866
▁if 8864
会う 8864
を飾る 8863
テラ 8862
注記 8861
uo 8860
仁 8860
{ 8859
発注 8859
中には 8858
Micro 8855
感染拡大 8855
登山 8855
これらは 8854
風味 8854
2.4 8853
有数の 8853
学校で 8852
扱われ 8852
含んでいます 8849
ィ 8848
ニュースレター 8848
あれば 8847
余裕 8847
家庭用 8847
巧 8847
を搭載し 8846
バター 8844
気圧 8844
路線 8844
または他の 8842
パンデミック 8841
創造的な 8840
色々な 8840
▁Bar 8837
する予定 8837
を集める 8836
最後 8836
趣味 8836
託 8835
の考え方 8834
ova 8833
を維持 8833
配線 8832
ごろ 8830
共同で 8830
喪失 8829
RL 8828
ではなかった 8827
の森 8827
唯一 8826
を確保 8825
与えられ 8824
か国 8823
健康的な 8823
引き上げ 8823
されるように 8822
ことが判明 8819
っていて 8819
疑い 8819
PST 8818
ダイビング 8818
met 8817
それ自体 8817
塊 8817
▁2: 8815
敗 8813
XP 8812
されております 8811
陣 8810
上にある 8809
役割を果たす 8808
に置いて 8807
に努めます 8806
を使うこと 8806
総合的な 8806
を受けている 8805
ストロ 8802
低コスト 8802
酵素 8801
あわせて 8800
継続して 8800
親会社 8800
鶏 8800
のみで 8799
▁HTTP 8798
ズム 8798
漬 8796
肥料 8796
ロジック 8795
価格が 8794
出口 8792
業績予想 8792
途中で 8792
ローズ 8791
OB 8789
あたりの 8789
勝ち 8785
ux 8782
見積 8781
えます 8780
で使用される 8780
消費量 8780
代理人 8779
を評価し 8777
重要性 8777
を取り巻く 8775
スプレー 8775
を開始し 8773
スタック 8773
間違った 8773
を読んで 8771
農村 8770
わずかな 8767
物体 8767
nc 8765
どうすればよいのですか 8765
Edge 8764
の進展 8764
どうして 8763
勧め 8763
最先端 8763
Time 8760
サンド 8760
範囲内 8760
戦う 8757
缶 8757
使用量 8754
真空 8754
近くに 8754
合同 8753
に限定され 8752
観光情報 8748
に乗る 8747
なんです 8746
を構築 8742
ファイルに関する 8740
凝 8740
ゆったり 8739
ことについて 8736
を知っています 8735
時間がかかる 8734
する可能性 8733
を恐れ 8733
アフリカの 8732
メタル 8732
聞かせ 8732
の未来 8731
病理学 8731
であるという 8730
▁work 8729
が同じ 8729
接続されている 8729
武装 8728
減少した 8728
の交換 8725
の速度 8724
GPU 8723
デバイスに正しくインストールされ 8722
出現 8722
アダプタ 8720
board 8719
に触れる 8719
を楽しむことができます 8716
のなかで 8715
を記載 8714
幼稚園 8714
▁Shopify 8712
広がる 8712
次のとおりです 8711
知ら 8709
インク 8708
包括的 8708
台湾の 8708
と協力して 8706
の始まり 8706
を開始した 8706
が開始され 8705
を追跡 8705
お菓子 8704
旬 8703
あって 8702
ポップ 8702
今でも 8702
使い方 8702
▁Science 8701
しようとしている 8701
書籍 8699
こういう 8698
かえ 8697
を閲覧 8697
監 8696
達が 8695
と考えております 8693
des 8692
ブラウザの 8691
爆 8690
を避けるために 8689
ヴォ 8689
搭乗 8689
澤 8689
腐敗 8689
聞こえ 8687
導き 8686
に特化した 8684
気軽に 8684
ify 8682
予備 8681
と言います 8679
フィードバックを送信 8679
出場 8679
と予想 8678
の提案 8678
ジオ 8678
円形 8677
実行する 8677
を聞き 8676
4% 8675
ウィーン 8674
触媒 8674
レル 8671
雪の 8671
を探している 8670
スラ 8669
増加し 8669
払い戻し 8669
正当な 8669
のセット 8668
撮影した 8667
切って 8666
の採用 8665
ダメージ 8665
溶け 8665
あふれる 8664
があった場合 8663
なくなります 8663
ほしい 8663
は必要ありません 8662
▁そうした 8660
▁一般的には 8660
ナンバー 8660
使用した 8660
手がけ 8660
考えられ 8659
を転送する 8658
人類の 8658
代理 8657
▁Read 8655
Na 8652
する場合があります 8652
ワーキング 8652
に携わ 8651
計算機 8651
ソフトバンク 8650
散策 8650
見られます 8650
まずは 8648
ショット 8646
入った 8646
はそれほど 8645
問題について 8645
ご家族 8644
の一部として 8644
栄 8642
漂 8642
詰ま 8641
クリスタル 8638
3,000 8637
ウエ 8637
サンタ 8637
例として 8635
センチ 8634
ヴァン 8634
理想的 8629
るという 8628
情報開示 8625
てくれました 8624
ルーティング 8624
sec 8622
を愛し 8622
の一つとして 8621
と言えます 8619
を持っていない 8619
fi 8618
啓発 8617
低く 8615
欄 8615
レク 8614
識 8614
▁Hol 8613
騒 8613
中部 8612
ability 8610
語学 8610
投げ 8608
交付 8606
ありがとう 8605
途上国 8605
インフレ 8604
ことが明らか 8603
これからの 8603
社会的責任 8602
デザート 8601
即座に 8601
設計されています 8601
の原則 8600
の記録 8599
拡 8598
アイルランド 8596
運賃 8595
液晶 8594
菓子 8594
年目 8592
主題 8590
附属 8590
帝国 8589
お知らせします 8588
年以来 8588
技術力 8588
染色 8587
フィード 8586
ハーブ 8585
でそれを 8584
というのが 8584
閣 8584
に大きく 8583
有効に 8583
BL 8582
調製 8582
苦しみ 8580
震 8580
為替レート 8579
編み 8577
非表示 8576
されるべきです 8573
ゆく 8573
出張 8573
脅 8573
紅葉 8570
ough 8569
が用意され 8569
μ 8568
ao 8567
者である 8567
を表し 8566
ren 8565
促 8564
標的 8564
を得ること 8562
当期純利益 8562
▁TAB 8559
かわいい 8559
飯 8559
同じように 8558
呼びかけ 8558
何でも 8556
col 8555
▁ヘルプセンター 8554
▁今後は 8554
されているため 8553
の育成 8553
潤 8551
行われています 8548
を訪れる 8547
範 8547
非難 8547
▁sp 8544
任意 8544
絞 8543
ソニー 8542
洞察 8542
新型 8541
シリーズは 8540
の最後の 8539
補足 8539
銀座 8539
杉 8538
矛盾 8538
ていますか 8537
がないこと 8536
資材 8536
地方の 8535
返し 8535
香港の 8534
sy 8533
そろ 8532
住居 8532
どのようにして 8531
伏 8531
知恵 8530
履修 8529
求人 8528
驚 8528
問題を解決 8527
を出す 8525
異議 8525
ファイバー 8523
単位で 8523
を確認できます 8522
繰 8522
地点 8520
ついに 8517
正式に 8517
エピソード 8515
ino 8514
のうちに 8514
と主張し 8513
顔を 8510
NPO 8508
など様々な 8508
ケープ 8507
優しい 8504
Le 8503
麺 8503
するものです 8502
プロンプト 8502
卒 8500
デビュー 8499
投資法人 8499
に沿った 8498
がすでに 8497
レア 8497
ゲイ 8496
代表的な 8496
牽引 8496
責任を負う 8496
を比較 8492
sha 8489
▁Amazon 8489
連盟 8489
たっぷり 8485
当社に 8485
にさらされ 8484
リヤ 8483
を失い 8482
ダイニング 8482
一見 8482
紛失 8480
▁JavaScript 8479
ディーゼル 8479
はっきりと 8478
unt 8476
社外 8476
最新バージョン 8475
かのように 8474
そもそも 8474
お申し込み 8473
の修正 8473
上司 8473
インターンシップ 8472
次のステップ 8472
決めた 8468
の景色 8467
メートルの 8467
得られ 8465
のだろうか 8464
の形状 8464
オメガ 8464
基調 8463
伝統的 8462
私たちを 8461
ティクス 8459
ノルウェー 8457
餌 8457
cam 8456
ox 8456
▁同社は 8455
こそが 8455
に置く 8455
キャッチ 8455
▁Time 8453
カジュアル 8453
DNS 8451
子供は 8451
まず第一に 8450
短期間 8450
総理 8450
を展開する 8448
を獲得する 8448
立った 8448
its 8447
キャピタル 8447
ファンタジー 8447
動脈 8446
運命 8445
でさえも 8444
日光 8444
の基盤 8442
憲法 8442
手間 8442
▁日本では 8441
見ることができます 8441
関連性 8441
お選び 8440
の遵守 8440
を投げ 8439
人間が 8439
収益性 8439
-20 8438
はしばしば 8438
を受賞 8438
サウジアラビア 8438
パンダ 8436
―― 8435
EST 8434
をご紹介 8434
なければならず 8433
コスト削減 8432
コントラスト 8432
機種 8432
胆 8432
MOV 8430
を保持する 8430
と私は 8429
▁content 8428
に制限 8428
を作る方法 8427
濃 8427
長期的に 8427
▁原則として 8424
を希望 8424
障 8423
を失う 8420
パラリンピック 8420
ほとんどの場合 8419
儀式 8417
Class 8416
を入力してください 8416
都合 8416
で作られた 8415
ボス 8415
頂けます 8415
My 8414
わざ 8413
外科 8413
定着 8411
ポンド 8410
time 8408
外務省 8408
さんに 8407
医師は 8406
キロメートル 8405
デッキ 8396
賑 8396
▁2001 8395
穀物 8395
はできません 8394
推奨事項 8394
直後 8393
均 8392
観点 8392
すべきである 8391
などについて 8391
元素 8390
グローバルに 8389
設定した 8389
Drive 8388
特色 8387
目的は 8387
コマンドライン 8384
パスワードを 8383
国際会議 8383
als 8381
トータル 8381
権力 8380
再構築 8379
サロン 8378
に就任 8377
国会 8376
葬 8376
▁2.0 8375
完備 8374
本来 8372
play 8371
デリ 8371
ることなく 8370
謎 8370
SK 8368
なのだ 8367
テク 8367
技術革新 8367
Outlook 8366
を上回る 8366
一人の 8366
前述の 8366
幾 8366
パイロット 8365
注意してください 8365
サプライ 8364
電子機器 8364
ush 8363
摩擦 8361
ことを目的としています 8358
モバイルアプリ 8358
が登場 8357
her 8355
フェーズ 8355
ライティング 8355
を管理し 8353
サードパーティの 8353
納入 8353
茂 8352
ように見えます 8350
知っています 8348
考えられる 8348
まあ 8347
割り 8346
決断 8346
異なり 8346
起こっている 8345
フォード 8344
壁の 8344
人体 8342
賛 8342
ルイ 8341
エロ 8339
当ウェブサイト 8338
に関する研究 8337
へ戻る 8337
を実行し 8337
プロデューサー 8336
このプロジェクト 8335
をご覧 8335
招き 8335
にも対応 8334
のヒント 8334
太郎 8334
アブ 8333
に置かれ 8332
不満 8332
多大な 8331
携 8330
について詳しく 8329
根本 8328
をリードする 8327
更 8327
open 8325
▁Image 8325
ロサンゼルス 8324
GL 8323
誓 8323
個人情報の取り扱い 8322
泣 8321
を開発しました 8320
知って 8320
Digital 8319
滑り 8319
ata 8318
ことを示しています 8318
前連結会計年度 8316
Do 8315
を活用する 8315
中学校 8315
を楽しめる 8314
メールを 8313
を習得 8312
を表明し 8311
フェン 8311
購買 8310
las 8309
` 8308
お願いします 8308
の皆様に 8308
モデリング 8308
▁はじめに 8306
非営利 8306
伊藤 8304
Content 8303
支払われ 8303
反対側 8302
シニア 8301
▁今日は 8299
増収 8299
診療 8299
日までに 8296
軽い 8295
の内側 8293
厳密に 8293
の創造 8292
ALL 8290
▁Suite 8290
たいと思っています 8288
の理解 8288
そしてそれは 8287
望み 8287
遅い 8287
クラスタ 8286
マインド 8286
ism 8285
宮殿 8285
純粋な 8285
インストーラ 8284
に関する法律 8282
の底 8281
公正な 8281
の周りに 8280
クラスター 8279
サイクロン 8279
サンプリング 8278
産物 8278
月期の 8276
編成 8275
so 8274
雷 8274
を明らかにする 8271
中国で 8271
に適用されます 8270
原価 8270
福音 8270
委員は 8269
併せて 8267
お互いに 8265
厚い 8264
礼拝 8264
経営成績 8264
とも呼ばれ 8263
したりする 8262
発酵 8262
▁JAEA 8261
が発生した 8260
ステートメント 8260
もたらされ 8258
量産 8257
を発揮し 8256
Secure 8255
理事長 8255
かれる 8254
様々 8254
運行 8254
をタップします 8253
仙台 8253
序 8253
1960 8252
ウォール 8251
恐 8251
営業利益は 8250
山口 8250
訪日 8250
コミュニティー 8249
修士 8249
暖房 8249
してくれた 8247
かけて 8246
知的 8246
主として 8243
言います 8240
ソロ 8238
レスポンス 8238
開催されます 8236
出された 8235
細かい 8233
苗 8233
が得られ 8232
に努めています 8230
わかってい 8230
Build 8227
逮捕 8227
1992 8226
iao 8226
貼 8226
に住んでいる 8225
灰 8225
肥 8225
グループでは 8224
デジタル化 8224
緊急事態 8224
増強 8223
豪 8223
大好き 8221
ヒュー 8220
教会の 8220
格安ホテル予約 8219
ESS 8218
背中 8218
オフィシャルサイト 8216
クチコミから 8216
プロモーションコード 8216
▁世界のホテル情報 8215
だったので 8215
マイクロソフト 8215
0.2 8214
のご案内 8214
ホテルを探して最安値でホテル予約 8214
先行き 8214
株当たり 8213
を解決する 8212
発表された 8211
▁ビリヤード 8210
ことでしょう 8210
奈 8210
それだけ 8209
Bitcoin 8208
双 8208
漏れ 8207
アンダー 8206
天皇 8204
慰 8203
GPS 8202
まっすぐ 8202
シンク 8200
が向上し 8199
エレ 8199
くれた 8197
を送り 8197
保障 8197
専門家の 8197
て下さい 8196
ウンド 8196
フォル 8194
に来た 8193
王国 8193
充実した 8190
LG 8189
倍の 8189
厳格な 8189
情報システム 8188
それはあなたが 8187
たりする 8187
寛 8184
を試して 8183
助成 8182
まらない 8181
コロナ 8180
主催者 8180
絡 8178
パレット 8177
ファイアウォール 8177
共有する 8177
POS 8176
▁1.0. 8176
の痛み 8174
インジケータ 8174
rr 8172
もらう 8172
晴 8172
模 8172
まわり 8170
を推奨 8170
を提供するために 8169
の方に 8166
を含めて 8166
▁当第 8165
独自に 8165
▁TEL 8164
▁But 8163
買付 8163
という点 8162
American 8161
まだまだ 8160
最小限 8160
詳細は 8160
ATION 8159
ブン 8159
ていましたが 8158
最初 8158
集計 8158
の安定 8157
期間が 8156
ny 8154
前半 8154
示された 8153
を好む 8152
顕微鏡 8152
黄金 8152
を返します 8151
山々 8151
バイオマス 8150
エキスパート 8149
鎮 8149
秋の 8148
ご覧ください 8147
にぴったり 8147
以 8145
必要がある場合は 8145
ことはない 8144
どおり 8144
メトロ 8144
公募 8144
収納 8144
も可能です 8142
送料 8142
TOR 8141
』( 8141
を起こす 8141
let 8140
search 8140
で行われた 8139
簡素化 8139
ないもの 8138
が必要になる 8137
スコ 8137
生産者 8137
貴社 8135
ことを期待 8134
すら 8134
インテグレーション 8131
並ぶ 8131
が進む 8130
偶然 8130
ご覧いただけます 8129
を用い 8129
彫 8128
tan 8127
不能 8127
その中に 8126
を手に入れ 8126
ient 8125
攻 8125
をすばやく 8124
ダイレクト 8124
ふた 8123
待っている 8122
豪華な 8122
ous 8119
より一層 8119
繁殖 8119
Ar 8118
いただきたい 8117
一貫して 8117
春の 8117
の雰囲気 8116
声が 8116
ですよね 8115
卒業後 8115
ドロ 8114
人的 8114
low 8112
いたり 8112
ライズ 8112
硬化 8112
豊かに 8112
有効性 8110
ディア 8107
が行われます 8105
ドイツ語 8103
を想定し 8102
訪 8102
Box 8101
しまう 8100
劣 8100
夫婦 8098
影響を受ける 8098
マリ 8097
パナソニック 8096
開いた 8096
並列 8095
されているので 8093
実用的な 8093
確認できます 8092
新潟 8091
に属しています 8090
役に立つ 8090
感じられる 8090
bl 8089
選ぶ 8089
を慎重に 8088
残る 8085
DP 8084
されているか 8084
に行きます 8084
ラット 8084
こちらの 8083
をつくり 8083
沸騰 8082
屋内 8081
アナリスト 8080
土曜日 8080
寒い 8080
dd 8078
ペースト 8077
が求められる 8076
年度から 8076
を策定し 8075
を実現し 8074
ポルシェ 8074
リーディング 8074
ple 8073
申し込み 8072
首都 8072
ウッド 8071
コーディング 8071
の削除 8068
となること 8067
ベット 8067
iff 8066
死ぬ 8066
LIVE 8065
▁Energy 8065
▁〒 8065
選び 8064
に至る 8063
気づき 8062
進める 8062
1994 8061
350 8061
つの方法 8059
をきれいに 8058
ペイント 8058
客観的 8058
控除 8057
外国の 8055
刊 8054
見出し 8052
醸造 8052
暮らす 8050
安価な 8049
を返す 8048
4.0 8047
いけ 8047
メイク 8047
を使用することで 8046
が参加し 8045
されていて 8045
わたしの 8045
DD 8043
後も 8043
奇妙な 8041
野球 8041
ious 8039
▁Em 8039
ヨン 8037
宛 8037
シック 8036
CSV 8035
日本における 8035
に残る 8034
ミクロ 8034
まとめて 8033
lf 8031
を書いて 8031
▁ビリヲカ 8030
自立 8030
洞 8029
にしても 8027
テンプレートを 8027
ハッシュ 8027
を持つこと 8022
ドラゴン 8022
ラインナップ 8022
幼児 8022
イエス様 8021
決まり 8020
を遵守する 8019
ディープ 8019
と一致 8018
をご希望 8018
ジム 8018
運び 8018
を発見し 8016
チャンピオン 8016
を果たす 8014
免 8014
複雑さ 8014
遠い 8014
fa 8012
謝 8012
を作成して 8011
エンドユーザー 8011
太陽光 8011
どころ 8010
人々と 8009
といわれ 8008
岐 8007
サインイン 8006
精神的 8006
lug 8005
中華 8004
交わ 8004
数年 8003
さず 8002
はっきり 8002
正確性 8001
さんと 7999
カクテル 7999
構え 7997
したくない 7995
nes 7994
サンフランシスコ 7994
することはありません 7992
農場 7992
ご注意 7991
ことを考え 7990
力学 7990
スロー 7988
側で 7988
岡山 7987
減少し 7987
OUT 7986
になれ 7985
キャン 7984
サークル 7984
匹 7984
に属する 7983
アム 7983
克服 7983
撮り 7983
自分に 7983
中心部 7982
の授業 7981
知識と 7981
Force 7980
をやめ 7979
毎回 7978
適時 7978
ities 7977
李 7977
WS 7976
の終わりに 7976
のではないでしょうか 7975
とらえ 7973
説明した 7972
館内 7972
ウォレット 7971
発行する 7971
粉末 7970
言われた 7969
ファイルの拡張子 7968
戻り 7968
▁但し 7966
設立された 7964
ホイ 7963
使用方法 7962
研究会 7962
祥 7961
MX 7960
の結果として 7960
合った 7960
大丈夫 7959
▁San 7958
社会の実現 7958
side 7956
の人気 7955
桃 7955
ゴールデン 7954
リニューアル 7953
総数 7953
環境問題 7952
ことを目的として 7949
思 7949
洞窟 7949
がすべて 7948
を迎える 7948
を下回 7947
製品開発 7947
それぞれが 7946
Next 7945
そういった 7945
予想される 7945
委 7944
討論 7943
食糧 7942
弘 7941
誤解 7940
機械的 7937
に入れて 7936
真剣に 7936
麦 7936
貧 7935
逃げ 7935
できない場合は 7932
ようとしています 7932
アパートメント 7932
system 7930
が確認され 7929
を歓迎し 7929
スコープ 7929
工芸 7929
▁Tube 7928
ことを願っています 7928
経営陣 7928
多様 7927
itch 7926
に追加する 7926
インスタレーション 7926
注入 7926
ワークスペース 7925
ことになりました 7923
べきか 7923
沖 7923
の両方で 7921
てきている 7920
怠 7920
休業 7919
多分 7919
ロイド 7918
ルータ 7917
出た 7917
豚 7917
80% 7916
ウム 7916
たかった 7913
script 7911
図書 7911
が得られます 7909
ible 7906
に住んで 7906
ベトナムの 7903
寧 7903
ITE 7902
お母さん 7902
ファイルを新しい 7902
外出 7902
エンターテインメント 7900
ギア 7900
マリア 7900
ユーザが 7900
エンティティ 7899
人たちは 7899
位置付け 7899
再建 7898
尋ねる 7898
対立 7897
▁Pinterest 7896
基本的 7896
hin 7895
に基づいています 7895
の研究開発 7895
インテリジェンス 7895
レオ 7895
bra 7894
メールが 7894
脇 7894
▁HTML 7893
プー 7893
WI 7891
知り 7891
両面 7890
シャットダウン 7889
協業 7889
ってきて 7887
依 7887
生成された 7887
を越えて 7886
永遠に 7885
や社会 7883
捧 7882
有害な 7882
を提供している 7881
を認め 7881
生態 7881
ところです 7880
を展示 7877
エグゼクティブ 7875
クラッチ 7875
顕著な 7875
ほう 7874
が容易 7873
の顔 7873
描かれ 7873
苦しんで 7873
旋 7869
回線 7868
運送 7866
▁無料ライブセックスチャット 7865
増益 7865
峰 7864
同氏 7863
変え 7863
相場 7863
一致する 7862
あなたのために 7860
恵み 7860
User 7859
ご用意 7859
みられる 7859
正面 7859
▁Security 7858
に依存します 7857
いれば 7856
マネジメントシステム 7854
活気 7853
ライター 7852
VER 7851
トルク 7851
提起 7851
light 7850
タバコ 7850
3.5 7849
いきます 7849
を除き 7849
デス 7848
JavaScript 7847
を求めて 7847
ey 7845
に注意を払う 7845
エリ 7845
デバッグ 7845
両側 7844
集まり 7842
ストップ 7840
統治 7840
あれ 7839
に活用 7839
目次 7839
いくつ 7838
添え 7838
翌 7838
VP 7837
を築く 7834
書く 7832
と考えられ 7831
ーズ 7828
不確実性 7828
このゲーム 7827
var 7826
剥 7826
繁 7825
槽 7824
db 7822
ドラム 7822
クール 7821
熊本 7821
lot 7820
働き方 7820
考えている 7820
自分を 7820
ご相談 7819
ペイン 7819
MAN 7818
ネジ 7817
に違反し 7816
▁Chrome 7815
リターン 7815
を作り出す 7811
返す 7811
見ると 7810
食べた 7810
問題点 7808
悩み 7808
アッ 7807
そしてその 7805
ほとんどすべての 7805
正義 7804
規模で 7803
されるまで 7802
ロビー 7802
悟 7799
を採用する 7798
希望の 7798
を押します 7797
cept 7794
媒 7793
満足度 7793
燃え 7793
刑事 7790
当館 7789
Lo 7788
に応える 7788
バッテリ 7788
研究活動 7787
に貢献します 7785
世界中から 7784
写真や 7782
無料ライブセックスチャット 7782
米国で 7782
脈 7782
わかり 7781
を傷つけ 7781
新しいアプリケーション 7781
GC 7780
をめざし 7779
モニタ 7779
win 7778
のメリット 7776
アセンブリ 7772
メンバーの 7772
と呼ばれます 7771
貫 7771
必要なもの 7770
▁企業情報 7769
順に 7768
ばかりの 7766
ウォン 7766
sis 7765
ニコ 7765
体感 7765
QR 7764
が設定され 7764
ことを示す 7763
博士は 7762
呼んで 7762
こんにちは 7761
危 7761
狭 7761
と共同で 7758
を行うために 7757
ah 7756
卒業生 7756
ニッ 7755
専門家は 7754
持続的な 7754
RY 7753
に関連付けられ 7753
を保証します 7753
マドリード 7753
長官 7753
に関連した 7752
さくら 7749
を望む 7748
クリックして 7746
ポット 7745
▁Player 7742
ではないこと 7742
乗客 7740
影響を受け 7739
統 7739
をリリース 7738
理由です 7738
であ 7736
前年同期 7736
ゅう 7735
▁has 7733
オーストリア 7733
から約 7732
奇跡 7732
上書き 7731
地形 7731
休み 7730
かかり 7729
つながる 7727
▁Analytics 7726
可用性 7726
dy 7725
インストールされている 7725
ことがわかりました 7723
欲求 7723
2.2 7720
Spot 7720
しょ 7720
の策定 7720
鉛筆 7720
が発生します 7719
密接に 7718
尊敬 7718
との交流 7715
傍 7715
くなります 7713
借入金 7713
どり 7711
エラーメッセージ 7710
初めに 7710
▁壁紙 7709
ROOT 7704
の指示 7702
を図るため 7702
他方 7701
がたくさんあります 7700
ナビ 7699
受験 7699
品質と 7699
日付で 7699
WAN 7698
差異 7698
を要する 7697
大容量 7697
スキーマ 7695
中です 7695
てみてください 7694
を認識する 7693
おく 7692
をかける 7692
を深め 7692
ヨガ 7692
扱う 7692
ign 7691
テリア 7691
領域で 7690
実習 7683
寿 7683
滑らかな 7683
見た目 7683
神奈川県 7682
の多く 7681
を継続的に 7681
飼 7681
言いました 7680
金曜日 7680
ようになっています 7678
弓 7678
最大級の 7678
dis 7677
inc 7677
されない場合 7677
コンビニ 7677
中古 7677
ご了承ください 7675
知られる 7675
Sp 7674
厳選 7673
▁Sub 7671
か否か 7670
イニシアチブ 7662
操業 7662
康 7661
▁このような場合は 7660
勢力 7660
イスラエルの 7659
を指します 7658
▁:: 7657
男性は 7657
分野での 7654
守り 7654
成長し 7654
漏洩 7653
ことがない 7651
を表現し 7651
塾 7651
ゲートウェイ 7650
ole 7649
mate 7648
たときに 7648
るでしょう 7648
淡 7648
が見つか 7647
ぜ 7647
付く 7647
現時点で 7647
等による 7647
再編 7644
を実現するために 7640
待機 7640
食事を 7640
丁寧に 7639
際は 7639
を組み合わせて 7638
Space 7636
電気自動車 7635
アプリケーションのインストール 7634
手助け 7634
べきではありません 7633
の実装 7632
世界中に 7632
免除 7632
van 7631
クレーム 7631
date 7630
LLC 7629
を訪問する 7629
オペラ 7629
尽く 7629
を把握し 7627
デバイスから 7625
不可能な 7625
ERS 7624
いただければ 7623
なくなり 7623
コーン 7623
に戻り 7622
を切る 7622
親切 7622
タス 7621
訪れた 7621
誤差 7621
不思議 7619
顕著 7619
堆 7618
教育機関 7616
妊 7615
往 7615
ファイルを取り扱う 7612
数時間 7612
これも 7610
になっており 7609
ジェンダー 7609
定款 7609
合併症 7608
細かく 7608
▁HKEY 7607
ご支援 7607
妊娠中 7606
特徴的な 7606
Alt 7605
を着用 7605
のアイコン 7604
を迅速に 7604
ダーク 7604
台所 7603
始まります 7603
ってきました 7601
を使えば 7601
uz 7600
それはおそらく 7600
子会社の 7600
電極 7600
教えてください 7599
地域における 7598
扉 7598
ASUS 7596
▁Support 7596
デート 7595
ボルト 7595
聞 7595
ビッグデータ 7594
ステンレス鋼 7593
事前の 7593
麗 7592
学問 7590
情報を収集 7590
高速化 7590
フック 7588
reg 7586
に掲載されている 7586
求 7586
スペシャリスト 7585
があるかどうか 7583
に進む 7582
同年 7582
をどう 7581
について説明します 7579
ことが出来る 7578
頂いた 7578
イエスの 7576
コイル 7576
係数 7575
しているのか 7573
虚 7573
れている 7572
ダウンロードできます 7572
3.1 7571
国土 7571
いろんな 7570
の更なる 7570
▁Ko 7566
鮮やかな 7566
down 7565
敷地 7564
富士山 7563
最大限 7563
type 7561
兵士 7561
表示された 7560
90% 7559
中長期的な 7559
内部監査 7559
も含め 7558
実態 7558
父母 7557
▁Access 7555
未定義 7555
梱包 7555
決算短信 7555
発展させ 7555
ff 7554
ビング 7554
▁拡張子 7550
tu 7549
可能だった 7549
を制作 7548
帰属 7548
画質 7548
ことのない 7547
矢 7547
しているのは 7546
出身の 7546
▁UTC 7544
HE 7543
込むこと 7543
半ば 7542
楽曲 7542
ツァ 7541
世界的 7540
このプロセス 7539
優先順位 7538
実に 7538
開き 7537
食べて 7537
▁(5) 7535
rc 7534
再インストール 7534
穏やか 7534
そのように 7533
最善 7532
チキン 7531
AND 7530
することができない 7530
ファーム 7530
人以上の 7530
取り出し 7530
味わう 7529
進学 7529
免許 7528
PER 7526
を設置する 7526
Game 7524
USD 7524
自動翻訳 7524
Text 7523
コンバータ 7523
という名前 7522
パレスチナ 7522
ブラウザで 7522
暑 7522
有害 7522
ISS 7521
たのです 7521
▁ニュースレター 7520
ステート 7520
に到達する 7519
滞 7518
空白 7518
告げ 7517
市場における 7517
ich 7516
▁Development 7516
▁Str 7515
ご登録 7515
を判断する 7515
graph 7514
で行われる 7513
会計処理 7513
▁Real 7512
ジット 7512
嘘 7511
ロレックス 7510
スマホ 7509
丈 7509
の売上 7506
よりもはるかに 7504
返却 7504
(2018 7503
に寄与し 7502
技法 7502
啓 7501
アレンジ 7500
仲 7500
IPS 7499
重さ 7499
DN 7497
手段として 7497
づいて 7496
違った 7496
ban 7495
を決定します 7495
医療機関 7495
受け取り 7492
Ni 7491
ヤマ 7491
提供されています 7491
文字通り 7491
事業年度 7490
の信頼性 7488
悪く 7488
換 7488
1993 7487
を見つけた 7487
自己株式 7487
つ以上の 7486
見つける 7486
部隊 7486
砲 7485
磨き 7485
部屋に 7485
することができました 7484
建築家 7484
東洋 7484
Apache 7483
ゼル 7483
彼ら自身 7483
暗号通貨 7482
を呼び 7481
ことは可能です 7479
は限らないことに注意してください 7479
に属し 7478
対照 7478
▁just 7476
遺跡 7476
Unity 7474
理解し 7474
リンポチェ 7472
出品 7472
十字架 7472
Cloud 7470
ご説明 7470
利用者が 7470
怒り 7469
本格 7469
を作った 7468
タービン 7468
潤滑 7468
兵器 7465
多少 7465
小麦粉 7465
インターネット接続 7463
契約書 7463
最初から 7463
テクノロジ 7462
良いです 7462
ってしまう 7460
当第 7460
熟練 7460
着物 7460
ega 7459
tes 7459
は全て 7459
面倒 7459
プログラムでサポートされている 7458
今すぐ 7457
習得 7457
の効率化 7456
急激な 7454
ウィーク 7453
170 7452
フリ 7452
値段 7452
ファイン 7451
恋人 7450
故郷 7450
取り入れ 7449
128 7448
ブローカー 7448
摩耗 7448
ロシア語 7446
入口 7445
編集が可能である 7445
シミュレータ 7444
幹部 7444
1989 7443
▁will 7443
地理的 7443
必ずしもそのデータ 7442
社員が 7442
ユニーク 7441
0.3 7440
AOMEI 7438
つつあります 7437
注意深く 7437
現在も 7437
を要求 7436
参加した 7435
遮断 7435
高度化 7434
ヶ 7433
に努める 7430
楽しめ 7430
(2) 7428
UC 7427
VA 7427
▁Gu 7427
▁world 7427
までご連絡ください 7427
頂 7427
▁特定の拡張子が 7426
をキャンセル 7426
アクチュエータ 7426
腎臓 7425
pre 7424
スケート 7424
ヴァー 7424
髄 7423
スペクトル 7422
相互に 7422
を自由に 7420
ディズニー 7420
感想 7420
が設置され 7419
につながっ 7419
てきます 7418
換気 7418
波長 7418
テニス 7417
国外 7417
ご存知 7416
へ移動 7416
花火 7416
経緯 7415
High 7413
お待ち 7413
▁Tel 7412
この世 7412
再発 7410
省エネルギー 7408
課税 7406
GitHub 7405
が出る 7405
任務 7405
対抗 7405
を計算する 7404
長年の 7404
たいと思う 7403
到達 7403
ef 7402
ユース 7400
tract 7398
ドロップダウン 7397
以外で 7397
与えられる 7395
学院 7395
Python 7394
火力発電 7393
.4% 7391
たまま 7391
SN 7390
▁these 7390
ミッ 7390
補充 7390
kin 7389
シャトル 7389
鼓 7388
奉仕 7385
子さん 7385
を軽減する 7384
抽象 7384
髪の 7383
つ目の 7382
に影響を及ぼす 7382
患 7382
設定された 7379
ted 7378
無限 7378
次の手順 7377
が低下し 7376
のみが可能で 7374
できるだけ早く 7373
説明する 7373
UFJ 7372
には多くの 7372
探査 7372
全身 7370
高め 7370
けて 7369
できるようになる 7369
になるように 7369
▁Explorer 7368
かかって 7368
でありながら 7368
掲げる 7368
lip 7366
または手動 7364
流動 7364
Base 7363
優位性 7363
需 7363
9:00 7362
▁Notebook 7361
に用い 7361
センチメートル 7361
作者 7361
機材 7361
財務諸表 7361
てはいけない 7360
の中心部 7359
を再現 7357
字幕 7357
を見つけます 7355
トレーディング 7354
烈 7354
▁Shop 7353
通期 7353
メモリカード 7351
将来的には 7351
いろいろ 7347
に保つ 7347
んですよ 7347
賠償 7347
刊行 7345
格差 7345
マンション 7343
懇 7343
ないため 7342
メンバーが 7341
弦 7341
申し出 7341
ファイルを開くことのできる 7340
ありませんでした 7339
を計画し 7339
明け 7338
ていれば 7337
航空券 7337
こういった 7336
究極の 7336
ラグ 7333
示されている 7333
正方形 7332
インセンティブ 7331
問題解決 7331
てほしい 7330
APEC 7329
放電 7329
文脈 7329
大企業 7328
詳しい 7327
権威 7326
受取 7325
アプリケーションからその 7324
とのこと 7323
明白 7323
来場者 7323
描き 7322
違って 7322
のインポートがサポートされてい 7321
ドローン 7321
ない場合もよくあります 7320
形式へのデータのエクスポート 7320
日系 7320
NEW 7319
を定義する必要があり 7319
新作 7319
▁その原因 7318
.7% 7317
Spec 7317
を見ている 7317
将 7317
未だ 7317
が強く 7316
このファイルは 7316
配当金 7315
LIN 7314
あなた自身の手で 7313
まない 7312
ウィルス 7312
den 7310
だし 7310
sch 7309
オークション 7309
カラム 7309
ことでした 7306
もらえる 7306
ショナル 7304
入る 7304
自治 7304
お花 7303
っこ 7303
last 7301
▁Type 7301
収集した 7301
マツ 7300
健康な 7300
同一の 7300
▁Flash 7298
を適用することができます 7298
大衆 7297
症候群 7297
順次 7297
のが良いです 7296
で初めて 7295
暖かく 7295
ft 7294
▁More 7294
かせる 7294
を節約する 7294
企業価値 7294
▁Foodion 7293
に戻 7292
着陸 7292
公正価値 7291
/10/ 7290
imp 7290
わかります 7290
適当 7290
予め 7289
2~3 7288
洗濯 7288
酢 7288
ごみ 7286
セール 7285
並べ 7285
届き 7285
川崎 7284
抗議 7284
述べる 7284
したところ 7282
と連携 7281
ったら 7279
アライアンス 7279
壮 7279
天体 7279
CLASSES 7278
すり 7277
aki 7276
データ復旧 7276
ブレード 7276
ローラー 7276
厳しく 7275
寒さ 7275
40% 7273
敷設 7273
▁Ta 7272
を持っていた 7272
伝えられ 7272
災 7272
▁Engine 7271
▁them 7271
▁very 7271
を可能にし 7271
ward 7270
レンガ 7270
が増加し 7268
に相当する 7268
ぶら 7268
▁Systems 7267
DOC 7264
夜間 7264
Mail 7262
を可能にします 7262
経常利益 7261
そうでない 7260
に依存する 7260
直後に 7260
ロケット 7259
信念 7259
感じている 7259
Sky 7258
それはあなたの 7258
からもう一度ダウンロードしてみ 7256
兆円 7256
申し上げ 7256
鋭い 7255
ジャガイモ 7254
させたい 7253
ピッチ 7253
楽しさ 7253
少しずつ 7252
クラン 7251
佐藤 7251
イト 7249
cell 7248
を実施しました 7248
▁some 7247
▁Chi 7246
このプログラム 7246
10,000 7245
オススメ 7245
サービス提供 7245
国債 7245
砂漠 7245
芝 7243
ロイヤル 7242
するときは 7239
似ている 7238
実質的に 7238
そのバージョン 7237
に示す 7236
平面 7233
眠り 7232
▁Control 7231
国立公園 7231
を定義する 7230
を取り除き 7229
プッシュ 7229
新しいもの 7229
を聞いた 7227
財政状態 7226
陳 7225
▁who 7224
手元 7224
と言える 7223
地獄 7222
過ごした 7222
JBIC 7220
XML 7219
MV 7218
▁Platform 7217
king 7216
しまった 7216
不思議な 7216
恩 7216
1,2 7215
に関するお知らせ 7215
技術の開発 7215
を参照する必要があります 7214
サポートされている 7213
永遠の 7211
config 7209
アセ 7209
申告 7209
ロジー 7208
無理 7205
開くことができないファイル 7204
を使用するには 7201
ニンニク 7201
National 7200
の地位 7200
全額 7200
に積極的 7199
カスタマイズされた 7198
工学部 7197
にあって 7196
弟子 7196
認められた 7196
今後とも 7195
俊 7195
れて 7194
を行なっ 7194
領事館 7194
Option 7193
アメリカン 7193
防御 7193
ope 7192
をお勧めします 7192
音量 7192
tics 7190
切る 7190
四季 7190
道徳 7190
▁この方法は 7189
才 7188
残念ながら 7188
登録商標 7188
する必要があり 7187
画期的な 7187
有効です 7186
番目に 7186
を見てみましょう 7184
確認してください 7184
慣行 7182
環境保護 7181
受けられ 7180
起きた 7180
及ぼす 7178
措置を講じ 7178
発見された 7178
涙 7177
が中心 7175
に囲まれ 7175
低温 7175
優れ 7175
法第 7175
在籍 7174
疲労 7174
product 7173
死者 7172
見つけ 7172
電話で 7172
カルシウム 7171
良かった 7171
ハイパー 7170
銘 7170
不透明 7168
彼女に 7168
▁Form 7167
気になる 7167
-15 7166
10:00 7166
rom 7166
▁Recovery 7166
カレー 7166
シェアハウス 7166
丹 7166
左側の 7166
経済的な 7166
繊細な 7166
Exp 7163
しているもの 7163
上がった 7163
数理 7163
ize 7158
lib 7158
▁その場合 7156
プリセット 7156
四半期連結会計期間 7156
覚えておく 7155
Core 7154
ating 7153
往復料金 7153
前期比 7152
貧しい 7152
独占 7151
需給 7151
描く 7149
繋がる 7149
次世代の 7148
素子 7146
大事な 7145
生産量 7145
で行う 7144
は適用されない可能性があります 7144
わけで 7144
取得したい場合は 7144
木製の 7144
ポルトガル 7143
dom 7141
と考えます 7141
時間以内に予約 7141
異なる場合があります 7140
が良く 7138
たい場合は 7138
コロンビア 7138
プロット 7138
拡張機能 7138
ブラウン 7137
Edit 7136
金額は過去 7136
ファイルをサポートしている 7133
見ている 7133
誘発 7132
PANDORA 7131
すごい 7131
ボタンを押して 7130
oy 7129
を待つ 7127
に分割 7126
を尽くし 7125
史上 7125
選択する 7125
hat 7124
アクリル 7124
著しい 7124
同じような 7123
福島県 7122
被災 7121
ベクトル 7120
リアリティ 7120
▁Site 7119
どれくらい 7119
はならない 7119
兆候 7117
してもらう 7116
あなたはそれを 7115
の過程 7115
エンドポイント 7113
スライドショー 7113
ミック 7113
本来の 7113
教えてくれ 7112
敷地内 7112
と見なされ 7111
安定化 7111
由 7111
公益財団法人 7110
臨時 7110
会議室 7109
使用可能な 7109
ベビー 7108
本文 7107
混雑 7107
JSON 7106
を使うことができます 7106
アスリート 7106
Visual 7105
に署名 7105
雇 7105
が必要な場合は 7103
含有量 7103
を実行するために必要な 7102
耗 7102
グッド 7100
袖 7100
扱っ 7099
FU 7097
がインストールされている 7097
輪郭 7096
(2017 7095
ことを目指しています 7095
にお問い合わせください 7094
パール 7094
不安定 7094
鉄鋼 7094
いなかった 7093
呈 7093
ピュ 7092
視点で 7092
設けられ 7092
ことなど 7090
金融緩和 7090
John 7089
高速道路 7089
モーション 7088
周知 7088
申し立て 7088
勢い 7085
を効果的に 7084
付加 7083
ように設計されています 7082
を回避 7082
出される 7082
明るさ 7082
言っている 7082
方法を参照してください 7081
になりたい 7080
.8% 7079
損害賠償 7078
といえる 7077
.2. 7076
▁Aspire 7076
が好きな 7076
講演会 7076
送信されます 7076
主流 7075
スカート 7073
重要な役割を果たし 7073
高等 7073
予告 7072
数週間 7071
are 7070
▁Team 7070
ているのです 7070
浅草 7070
を示している 7069
等に関する 7069
エキス 7068
▁data 7067
が可能になります 7066
竜 7066
ボタンをタッチ 7065
よう努め 7064
を制限する 7064
発掘 7064
知覚 7064
革新的 7064
マッ 7062
挑 7062
皆さんの 7062
で起こりうる 7060
HR 7059
をインストールした後に 7059
留保 7059
を目的とする 7058
Cor 7057
ロータリー 7057
課題解決 7057
壁紙 7056
教職員 7056
○ 7055
識別子 7055
アピール 7052
ジャーナル 7052
ご希望の 7051
忍耐 7051
シールド 7047
その中身 7046
に対応しています 7046
仮定 7046
昼食 7046
お電話 7045
給付 7045
読んだ 7044
愛好家 7043
格安 7043
フィート 7042
ボイス 7042
と呼ぶ 7041
が必要な場合 7040
必要となる 7040
癒し 7040
host 7039
照射 7038
Tra 7037
ama 7037
を構成し 7037
営業日 7037
営業活動 7037
Multi 7036
レコーダー 7036
侵 7035
ガム 7034
人びと 7034
▁make 7032
arch 7031
できるので 7031
を調理する 7031
ステイ 7031
ポリマー 7030
→ 7029
様な 7028
準備ができている 7028
関連付ける必要があります 7028
品目 7024
親戚 7024
日本酒 7023
自動運転 7023
トレース 7022
開業 7022
ビート 7020
お越し 7019
を指定して 7019
見つけることができます 7019
我が国の 7018
童 7018
行うこと 7018
も含めて 7017
を持つファイルを 7015
鈴木 7015
ular 7014
がほとんど 7014
ファイルを開こうとするとき 7014
不十分 7014
借入 7014
blog 7013
お客様へ 7013
しなさい 7013
を起動する 7013
年後に 7013
▁Mode 7012
匂い 7012
市況 7012
1991 7011
なくなって 7010
アワード 7010
などがあります 7009
購入する 7009
を付与 7008
を想像 7008
暮 7008
建てられた 7005
浄化 7005
アイス 7004
カレッジ 7003
有益 7003
ology 7001
投資口 7000
を向上 6998
緩やかな 6998
インタラクティブ 6997
Ruby 6996
をお願いします 6996
をクリア 6995
ボーイ 6994
要求される 6994
番目 6993
Stat 6992
に位置しています 6992
ッシャー 6992
手頃な価格 6992
明記 6992
アプリケーションに関連付けさせる 6991
邸 6991
学研究科 6990
定めた 6989
全面 6988
hou 6986
の関連付けが間違ってい 6986
卓越した 6986
書式 6985
定められた 6984
tech 6983
乏 6983
のは難しい 6982
抗体 6982
確実な 6982
Application 6980
治療薬 6980
てもらえ 6979
芸術家 6979
責 6979
削 6978
▁Display 6977
生物学的 6976
順調に 6976
たいとしましょう 6975
で起こりうる問題 6975
モダン 6975
多種多様な 6975
不正な 6974
あなたはおそらく 6972
最優先 6972
を達成するために 6971
図表 6971
尽力 6970
っていう 6968
対称 6968
イスラーム 6967
悪魔 6965
を見つけることができないと 6964
struct 6962
に適用される 6962
エレガントな 6962
進行中 6962
月曜日 6961
Soft 6960
がかかる 6960
リダイレクト 6959
即時 6959
なさ 6958
をお探し 6958
溢れ 6958
確かめ 6958
シューズ 6957
続行 6955
true 6954
前面 6954
作成してみてください 6953
に含まれている 6950
本資料 6950
TB 6949
かい 6949
スルー 6949
驚くべき 6949
ping 6948
普 6947
梨 6947
お使いのコンピュータにインス 6946
できるようにします 6946
パズル 6945
誘致 6944
が記載されています 6943
gy 6942
ていった 6941
時間帯 6941
禅 6940
に与える 6939
内にある 6939
次のようなメッセージが表示され 6939
PayPal 6938
するために必要な 6938
スプリング 6938
フェイ 6938
ひどい 6937
を追い 6937
関わり 6937
により英語 6935
オリーブオイル 6935
4.5 6934
指向 6934
ユニクロ 6932
胞 6932
パッ 6931
プローブ 6931
酔 6931
カンファレンス 6929
▁戸越銀座商店街 6928
知事 6927
rs 6926
威 6926
表示されることです 6926
ご提案 6925
と同様の 6924
に携わる 6924
細部 6923
阪 6923
線量 6922
プログラム又は 6921
AST 6920
マジック 6920
簡易 6920
▁わかりやすい例 6919
されるファイル拡張子 6918
ゲージ 6918
ジャズ 6917
愚 6917
の数が多くなるため 6913
アプリケーションによってサポート 6913
イーサネット 6913
アプリケーションで開き 6912
▁当ホームページについて 6911
中国語に翻訳して 6911
するよう努めましょう 6910
バージョンが新しいほど 6910
立って 6910
億円となりました 6909
いる内容が含まれ 6908
この場合 6908
レジストリに手動で 6907
当面 6907
新年 6907
ewbo 6906
のインストール済 6906
プログラムの最新バージョンを入手 6906
用いられる 6906
育児 6905
込まれた 6905
ムーブメント 6904
インサイト 6903
鍛 6902
を閉じる 6901
茶色 6901
他の方から 6900
Pass 6899
ファイルが壊れている可能性があり 6899
を呼び出す 6898
分泌 6898
望む 6898
際にエラーが発生した 6898
山形 6897
調査結果 6897
から構成され 6896
すべてのデータ 6895
万トン 6894
の活性化 6892
信託銀行 6892
暦 6892
長方形 6892
ラフ 6891
クローズ 6890
犠牲 6890
見積り 6890
が保有する 6889
システムが指定された 6889
ファイルを取得した場合 6889
辞書 6888
Cisco 6887
といえば 6886
の出現 6886
供与 6886
精製 6886
することも可能です 6885
サービスを提供し 6885
レジストリ項目 6885
典型的な問題は 6885
安価 6885
疫 6885
側から 6884
頑 6884
に合う 6883
再送してもら 6883
▁Recover 6882
芸能 6882
らす 6881
旅客 6881
DF 6880
yapplication 6880
を開いたり読み込んだりする 6880
ファイルの別のコピーを見つけるか 6880
ライダー 6880
中に自動的に追加され 6880
拡張子およびファイルテーブル 6880
トールされているプログラムと 6879
ベースで 6879
これを行う 6878
億人 6878
短い拡張子 6878
と長い拡張子 6877
心理的 6877
以後 6876
続けた 6875
5.0 6874
だけではありません 6874
をかけて 6874
▁Cre 6873
プログラムとの関連付け 6873
の兆候 6872
専門性 6870
忙しい 6868
バングラデシュ 6867
的なもの 6867
わかりません 6866
を使います 6866
が適用されます 6865
今週 6864
微細 6863
妨害 6862
戻る 6862
くれる 6861
どのように行うのですか 6861
方法については 6861
強固な 6858
つける 6857
を推察する 6857
与える 6857
持分 6857
縛 6856
バーグ 6855
出版物 6855
帯域幅 6855
血圧 6855
GUI 6854
のシンボル 6852
ファイルとアプリケーションを 6852
嵐 6852
優れている 6851
-02 6850
に関わらず 6850
ube 6849
▁Am 6848
レジストリエントリで 6848
tribu 6847
作り上げ 6847
1.3 6846
を受け取ったことがあります 6846
ヒーロー 6846
Square 6845
Va 6844
スリランカ 6844
自動で 6844
▁Tour 6843
を推進しています 6843
に関連するファイルを削除 6842
アプリケーション選択 6842
を作成すること 6841
注力 6841
▁フォームに入力して 6840
した後にもう一度 6840
で初めて取り扱う 6839
を持つファイルには 6839
ト調 6839
▁そのための構文 6838
みたいな 6838
ファイルを開こうとした時 6838
指定するアプリケーションの 6838
▁洋楽 6837
の定義に関する情報を 6837
サブキーを作成する 6837
プログラムの識別子 6837
志向 6837
懸 6837
ポータブル 6836
レジストリに短い拡張子 6836
長い拡張子 6836
のシステムは通常 6835
大量に 6835
PowerPoint 6833
何らかの理由によりこの 6833
を検討し 6832
発音 6831
学園 6830
の強み 6829
エラーを直す 6829
ドット 6829
リンチェンドルジェ 6829
がかかります 6828
関連付けを追加する 6828
なるべく迅速に対応 6827
には次のようなものが挙げられ 6827
を装備しているか 6827
上手く行かなかった場合 6827
飽和 6827
ガイダンス 6826
選手権 6826
配偶者 6826
▁Maps 6825
▁want 6824
マンガ 6824
を止め 6823
オバマ 6823
タブで 6823
使用すること 6823
焼け 6823
▁Virtual 6822
実施している 6822
をタップして 6821
ザイ 6821
奨 6821
独立性 6821
ワット 6820
急性 6819
ドリル 6818
郵送 6818
された後 6817
-13 6815
ムービー 6814
季 6814
始まりました 6812
涼 6812
週に 6811
開け 6810
っち 6806
の早期 6806
画家 6806
積み重ね 6806
ソル 6805
で動作する 6804
1.4 6803
ider 6803
ファイルを起動すると 6803
ファイルとインストールされ 6801
浄 6801
と信じています 6800
排気 6800
好評 6798
直線 6798
▁上記のリストにある 6797
としたら 6796
JI 6795
cho 6795
プログラムを関連付ける 6795
古典 6794
混ぜる 6794
建築物 6793
そんなに 6792
一時停止 6792
you 6791
られており 6791
が変更され 6790
ことが可能 6790
実用 6789
▁School 6788
マク 6788
BY 6787
PV 6786
cer 6786
本投資法人の 6786
カーブ 6785
繋がり 6785
貸付 6784
非常に高い 6783
内装 6782
Coin 6781
必要がある場合 6781
Search 6779
が起き 6779
んじ 6779
その実行 6778
登録された 6778
FM 6777
が使用されます 6777
house 6776
インフルエンザ 6774
運転手 6774
yu 6773
肉体 6772
TF 6771
70% 6770
が原因で 6770
とは何か 6769
併用 6769
アーツ 6768
ブックマーク 6768
説得 6768
並み 6766
NP 6765
version 6765
ようとしている 6765
荘 6765
に及ぶ 6764
又は古い 6764
ロット 6763
田中 6763
随 6762
性のある 6761
Photoshop 6760
すべてのドライバをインストール 6760
も様々であること 6760
確かな 6759
サポートする拡張子 6758
text 6757
を与えた 6756
宛先 6755
hot 6754
▁War 6754
トライ 6754
変わって 6753
que 6752
Object 6751
に適応 6751
以下のように 6751
視察 6751
ency 6750
大学生 6749
(2015 6748
メディ 6748
不便 6748
聞いた 6748
▁Now 6747
濡れ 6746
ことが望ましい 6745
を開催しました 6745
合理化 6744
が異なります 6742
低価格 6742
解決することができます 6742
をお願い 6741
ナス 6741
施工 6741
それゆえ 6740
を有しています 6740
ベラ 6740
死んだ 6740
せた 6737
動的な 6737
踊 6737
▁さんの投稿 6736
方面 6735
叫 6734
国際機関 6734
皆様に 6733
つ目は 6732
はまったく 6730
オペレータ 6730
の大半 6729
インターネット上で 6729
安全衛生 6728
河川 6728
灰色 6728
リッチ 6727
家計 6727
になることができます 6726
話し合い 6726
経済学 6725
▁going 6724
レセプション 6724
にアクセスできます 6721
Exchange 6720
呼ばれ 6720
に達した 6717
慢 6717
早期に 6717
dic 6715
fu 6715
お好み 6715
台北 6715
等しい 6712
露出 6709
OEM 6708
瞬間に 6708
gar 6707
敬意 6707
お願い申し上げます 6706
に搭載 6706
を参考に 6706
増殖 6705
受ける 6704
する能力 6703
FAT 6702
▁適切なプログラムバージョン 6700
レーン 6700
出血 6700
優秀 6699
みてください 6698
ラリー 6698
乗馬 6698
出来ない 6697
造船 6697
cha 6696
ume 6696
幸せな 6696
その内容 6694
を掲載しております 6694
光沢 6694
最も高い 6693
ユネスコ 6692
rate 6690
起き 6689
Product 6687
ぐる 6687
の過程で 6686
Wallpapers 6685
遺伝 6684
の首都 6683
信じられないほど 6683
られること 6681
Black 6680
事が出来 6680
TOKYO 6679
アフター 6678
校正 6677
喫 6676
打ち上げ 6675
三角形 6674
を使用する必要があります 6673
(2016 6672
of 6672
▁Edition 6672
アクセシビリティ 6672
が認められ 6670
共感 6670
になるまで 6669
マラソン 6669
詳しい情報 6668
New 6667
ウー 6667
ハイキング 6667
異なった 6667
けた 6666
と連携し 6663
使用された 6662
ないという 6661
を有している 6661
のに十分です 6660
An 6659
ことさえ 6658
DL 6656
偶 6656
ワイド 6655
を受けています 6654
処置 6654
生き物 6654
プロトタイプ 6653
困難である 6652
栄養素 6650
ada 6649
くなった 6649
を拡大する 6649
何百 6649
腐食 6649
義務付け 6648
忍 6647
4.1 6646
市長 6646
フレンドリーな 6645
水産 6645
秋に 6645
SW 6644
女優 6644
年前の 6644
サムスン 6643
ソースコード 6643
メンタル 6643
私はそれを 6643
加入者 6642
役立ち 6642
に連絡してください 6641
を見据え 6641
フレキシブル 6640
彼自身 6640
から削除 6639
塞 6639
適用されます 6639
完全性 6638
GHz 6637
魔 6637
▁At 6636
分ける 6636
緑色の 6636
行動計画 6636
に当たって 6635
アナリティクス 6635
聖霊 6635
ことができなかった 6633
作成する 6633
これにより 6632
双日 6632
が豊富 6631
陸上 6631
届ける 6630
を受け取り 6629
を説明し 6628
帯域 6628
Air 6626
tle 6626
をつなぐ 6626
に満ちた 6625
挙動 6625
が正常に 6623
一次 6623
博士課程 6623
座標 6623
ern 6620
▁Health 6619
サービスを提供します 6619
zer 6618
出すこと 6618
多言語 6618
見つかった 6618
HTTP 6617
制裁 6617
ani 6616
に戻ります 6616
を与えること 6616
方には 6616
浅 6616
にあたる 6614
先進的な 6614
急増 6614
渡航 6612
関東 6612
.3. 6611
アミノ酸 6611
と言われる 6610
マルチメディア 6610
前提条件 6609
解体 6606
代わり 6605
安く 6605
La 6604
の際は 6604
外れ 6604
EMS 6602
SV 6601
未満の 6600
mag 6598
▁look 6597
と認められる 6597
par 6595
象徴 6595
旭 6594
提 6593
皆さんに 6593
納期 6591
を最適化する 6589
▁Description 6587
ブッシュ 6585
預言者 6585
縫 6583
どの程度 6581
オリーブ 6581
ボタンを押す 6581
新鮮 6581
やり取り 6580
メダル 6580
濃い 6579
〉 6578
men 6576
登場する 6576
とのコミュニケーション 6573
の対戦成績 6573
を失うこと 6573
ific 6572
描写 6572
Advanced 6570
に分類 6570
gram 6569
カントリー 6569
お酒 6566
を維持するために 6565
ノール 6565
ママ 6565
保安 6565
救われ 6564
文化遺産 6564
▁when 6563
ェ 6560
働いている 6559
栄光 6559
送迎 6558
民俗 6557
非常 6557
課金 6556
総務 6555
vert 6554
になれば 6554
必要な情報 6554
消費電力 6554
落ち着いた 6554
に立って 6553
を最大化 6553
提唱 6553
敢 6553
組成物 6553
ming 6552
▁Award 6551
なかったので 6551
スクリーニング 6551
フラワー 6551
絶景 6551
をご用意 6550
初回 6550
集会 6549
を徹底 6548
が開きます 6546
ミュージシャン 6546
優れています 6546
を表現する 6545
ハノイ 6545
初期化 6545
学生たち 6545
重要な要素 6545
▁City 6544
できる限り 6544
を参照して 6544
ストレッチ 6543
産業界 6543
顧問 6543
に耳を傾け 6542
須 6542
を持たない 6541
同士の 6540
に続く 6537
べきだ 6537
今年度 6534
けん 6533
熊 6532
を発表した 6531
心より 6531
乗車 6529
であろうと 6528
ストローク 6528
居住者 6528
採取 6528
せん 6527
一貫した 6527
〈 6526
残っています 6526
プライマリ 6525
人気があります 6525
致しました 6525
▁Plan 6524
を引く 6524
uff 6523
レモ 6520
想像力 6520
膝 6519
を確保するために 6518
の多くが 6517
心理学 6517
有り 6517
やがて 6515
ようやく 6515
ナショナル 6515
あげる 6514
堀 6514
lay 6513
していきたい 6513
他の多くの 6513
に注目し 6511
漆 6511
に注力し 6510
僕が 6510
を注ぎ 6509
短所 6508
を発行します 6507
コーポレートガバナンス 6507
厚さ 6507
TL 6506
ham 6506
ift 6503
されなければなりません 6503
の中で最も 6503
だけでも 6502
を行っており 6502
教訓 6502
が現れ 6501
債券 6501
判明 6501
日以降 6501
開花 6500
しておりません 6499
奴隷 6499
OFF 6498
Front 6497
アジア太平洋地域 6497
フォロワー 6497
を手に入れる 6496
共存 6496
揺れ 6495
ラオス 6494
追加情報 6494
▁NEWS 6493
補助金 6493
を削除します 6492
溶解 6492
避 6492
ピット 6491
最大限の 6491
探偵事務所 6489
が楽しめる 6488
シームレス 6488
惹 6488
普通株式 6488
看板 6488
買う 6488
密な 6487
ラブ 6486
如 6486
実効性 6486
狙 6486
過剰な 6485
改修 6484
盛ん 6484
SHA 6483
腐 6483
▁were 6482
トーナメント 6482
平方メートル 6482
YO 6480
ミラノ 6480
式典 6480
ジェイ 6479
掘削 6479
預 6478
Acronis 6477
神話 6477
頭痛 6477
▁Policy 6476
を測定し 6476
膣 6476
出店 6475
幻想 6475
ファイルを何 6474
玉ねぎ 6473
2.3 6472
ROM 6472
CSS 6470
単独 6468
断片 6468
に浸 6467
アニ 6467
嬉 6467
興味のある 6466
キス 6464
アムステルダム 6462
怪我 6462
以下の手順 6461
FTP 6458
印象的な 6458
点灯 6458
に満足 6457
惨 6457
kW 6456
を追加し 6456
を受け取ります 6455
歯科 6455
透明な 6454
ているのか 6453
最も簡単な 6453
点字 6453
を浴び 6451
妥当 6451
させました 6448
できないこと 6448
目指 6448
▁私たちのサイトでは 6447
を追求する 6447
カーテン 6447
化学的 6447
の代表者 6446
ぷ 6446
キャラ 6446
歩道 6446
やっている 6445
考えています 6445
基本的には 6444
拘 6444
持って 6444
ez 6443
新興 6443
を訪れた旅行者や地元民が投稿した 6442
リビング 6442
小屋 6441
緒 6441
とくに 6440
使徒 6440
を施し 6439
シオ 6439
戒 6439
斜面 6439
の後ろに 6438
00,000 6437
を作るために 6437
シカゴ 6437
所在 6437
Oracle 6435
あっ 6434
を提案する 6434
簡単な方法 6434
所長 6433
行動規範 6433
わせ 6432
を止める 6432
を更新する 6430
WE 6429
展望台 6429
に変え 6428
の中核 6428
稼 6426
─ 6425
▁because 6425
使え 6424
光景 6424
オーガニック 6423
近づいて 6423
月中旬 6422
HC 6420
あなたも 6418
専門的 6418
粘土 6417
ally 6416
を要求する 6416
マージ 6414
使用可能 6413
示した 6413
結びつけ 6413
悪影響 6411
消毒 6411
を指定し 6410
也 6410
排他的 6410
耐え 6410
項の規定 6409
を検索する 6408
しやすく 6407
を取り戻す 6407
を作成するには 6406
EI 6405
家庭で 6405
魔法 6404
たくさんあります 6403
と協力し 6403
サーチ 6402
展開する 6401
が無い 6400
前まで 6400
非常に重要な 6399
アトラクション 6397
暑い 6397
皆さま 6396
ctor 6395
less 6395
産学連携 6395
透過 6395
INC 6394
を保有し 6393
トラスト 6393
救助 6393
裁量 6393
ニット 6392
先ほど 6391
源泉 6391
を築い 6390
Message 6389
臭い 6389
孫 6388
リスクマネジメント 6386
勇 6386
変わらない 6386
を装備 6385
に接続します 6384
泳 6383
を実行して 6382
部位 6382
▁デフォルトでは 6381
粉砕 6381
荷重 6381
継続的 6380
違 6380
魔法の 6380
少しでも 6379
放射性 6379
電気通信 6379
薄く 6378
tsu 6377
モリ 6377
ヴァイ 6377
登る 6377
固定資産 6375
ボタンをクリックしてください 6373
スパム 6372
新しいバージョン 6372
CU 6371
バナー 6370
sol 6367
翻訳者 6367
が期待される 6365
COP 6364
▁Limited 6364
ASRock 6363
ムスリム 6362
石鹸 6362
希 6361
東芝 6361
揃え 6360
行われました 6360
を交換する 6359
トラベル 6359
Bit 6358
をめぐる 6357
ズーム 6357
ヘン 6357
金融システム 6357
使われています 6356
高く評価され 6356
果たし 6355
IBM 6354
周年記念 6354
と思われます 6353
の場合もそうで 6353
単純に 6352
祖 6352
プレスリリース 6351
AK 6350
を取り付ける 6350
を学びます 6350
本展 6350
退屈 6350
▁ウィキペディアで 6349
を卒業 6349
データセット 6349
埋め込み 6348
256 6346
都心 6346
四川省 6345
を受け取った 6344
カプセル 6344
賄 6344
三菱重工 6342
関連情報 6342
スナップショット 6341
zi 6340
を使うと 6340
に囲まれた 6339
に指定され 6339
に置き換え 6339
旅館 6339
だけど 6338
功 6338
持参 6338
負け 6338
video 6337
シアター 6337
ピックアップ 6337
鬼 6337
KU 6336
リビア 6336
今度は 6335
同社は 6335
の最も一般的な形式は 6333
太鼓 6333
とのことです 6331
のタイプのファイルと 6331
症例 6331
広告主 6330
Hyper 6329
られるように 6329
ではないか 6328
ポーズ 6328
紅 6328
GIF 6327
兄 6327
190 6325
二国間 6325
脚本 6324
ファイルに関する情報を検索し 6323
日数 6323
コンパクトな 6322
フー 6322
一般的な質問に対し 6322
これらのごく 6321
専門的な回答 6321
パノラマ 6319
赤外線 6319
ハンガリー 6318
すべてのもの 6316
を選んだ 6316
月下旬 6316
IFRS 6315
邪魔 6315
スナック 6314
原子炉 6314
最小限の 6312
障壁 6312
を飲み 6311
個展 6311
Green 6310
死刑 6310
忙 6309
.0% 6308
激しく 6306
NASA 6305
ディーラー 6304
当グループ 6304
▁would 6303
Id 6301
free 6301
js 6301
と仮定 6301
心理 6301
AF 6300
を使って開くか 6300
アクセスできます 6299
に使用されます 6298
を手動で 6298
一律 6297
uan 6296
このツール 6296
ゼン 6296
ハウジング 6296
を考慮した 6295
ブレンド 6295
を持ちます 6294
Master 6293
臭 6292
どうか 6291
にも関わらず 6291
に帰 6291
▁Watch 6290
を記入 6290
到来 6290
昆虫 6290
を踏まえて 6288
上げた 6287
恥ずかし 6287
犠牲者 6287
事由 6286
よろしく 6285
が始まる 6283
バルコニー 6283
ビーガン 6283
ADC 6282
4,000 6281
させたりする可能性があります 6281
就任 6281
DK 6280
協力関係 6280
祝日 6280
アカウントを作成 6279
法定 6279
内容について 6277
▁Chat 6276
壇 6276
持続可能な開発 6276
真理 6275
隣接 6274
ことが重要 6271
への接続 6271
を安全に 6271
定められ 6271
キャビネット 6270
コラボ 6270
遍 6270
▁以下は 6269
を前提とし 6269
アプライアンス 6268
軍隊 6268
に値する 6267
イタリア語 6266
統合された 6266
次いで 6265
について議論 6264
趣旨 6264
造形 6264
ことを理解し 6262
table 6261
行列 6261
全面的に 6260
いただくこと 6259
シャッター 6259
てもらう 6258
確実 6258
ASS 6255
必要がない 6255
▁こうして 6254
を愛する 6254
オフセット 6254
一定期間 6254
届く 6254
静止 6254
WO 6253
のに十分な 6252
の象徴 6252
決定した 6252
セキュリティが低下し 6251
デバイスの故障の 6251
勝つ 6251
だということ 6250
を失った 6250
問題があります 6249
工房 6248
ギュ 6246
者達 6246
デバイスを破損 6245
ウール 6244
ドライバが最新でない 6244
背面 6244
を作りたい 6243
ベストプラクティス 6243
リスクが増した 6243
位置情報 6243
政府機関 6243
を費やし 6242
述べました 6242
できて 6241
を担当する 6241
トピックス 6241
存在感 6241
が可能となります 6239
スタンス 6239
何人 6239
▁この度 6238
数年間 6238
BD 6237
移動する 6237
遡 6237
黙 6237
ソフトウェア開発 6236
高解像度 6236
子供たちが 6234
起因 6233
経由 6232
が必要となる 6231
てくださる 6230
タイムライン 6230
を選択する必要があります 6229
取り組んでいます 6229
有意 6229
渇 6229
見積もり 6229
引き起こされ 6228
注射 6228
標高 6227
を依頼 6226
アダム 6226
愛情 6226
CV 6225
ジャーナリスト 6225
最も簡単な方法 6225
最後まで 6225
下がっ 6224
JICA 6223
蒸 6223
▁how 6222
グロー 6222
伊藤忠商事 6222
購入者 6222
エレベーター 6221
現地で 6221
および他の 6219
飲んで 6219
高くなります 6217
を中心とする 6216
商業施設 6216
ICO 6215
メトリック 6215
入れる 6215
個体 6213
演算 6213
皆さんが 6213
を監視する 6211
cat 6210
を作り出し 6210
サンゴ 6210
品質保証 6210
食欲 6210
寮 6208
刀 6207
定時株主総会 6207
を証明する 6206
スイッチング 6205
すばやく 6204
このウェブサイト 6203
無限の 6203
に包まれ 6201
受賞者 6201
物品 6201
を持っており 6200
を締結し 6200
組立 6198
▁15. 6197
枯 6197
索 6197
続いている 6197
に到達 6195
他のすべての 6195
期待されています 6195
歩み 6195
▁その際 6194
別々に 6194
増加しました 6194
ご飯 6192
芸術祭 6192
出会った 6191
残った 6191
をオンに 6190
太陽電池 6190
環境の変化 6190
フィルタリング 6189
培養 6189
前年度 6188
正常な 6187
KY 6186
サファイア 6186
Good 6185
に精通し 6184
製作所 6184
共催 6183
開いて 6183
セミ 6182
駐車 6182
マニ 6181
未知の 6180
っかり 6178
を訪れた 6178
会館 6178
読んで 6178
部分的に 6178
面では 6177
に進みます 6174
ほこり 6174
を手に 6174
低迷 6174
千葉 6174
多くの人々が 6174
歳未満の 6174
間違って 6174
/11/ 6173
が多数 6173
壊れた 6173
柳 6173
逸 6173
を取り除きます 6172
拠点として 6172
高まっています 6172
AW 6171
を行うことで 6171
アンチ 6171
トム 6171
(0 6169
ocket 6169
アラーム 6167
手荷物 6167
続きます 6167
▁Out 6166
研磨 6166
CG 6165
Environment 6165
MF 6165
admin 6164
古くから 6164
サービスプロバイダー 6162
望んでいる 6162
経済活動 6161
直感 6160
づき 6159
右側の 6158
論理的 6157
高圧 6156
ネパール 6155
疎 6155
自信を持って 6155
に恵まれ 6154
保険会社 6154
調味料 6154
身近な 6154
本当 6152
添付ファイル 6152
bot 6151
裸 6151
卸売 6150
であるべきです 6149
を受けること 6149
メジャー 6149
右クリック 6149
局所 6149
窒素 6149
▁Your 6148
ライド 6148
常時 6147
賞賛 6147
MHz 6146
▁Min 6146
しませんでした 6146
塗布 6145
磁場 6144
Ctrl 6143
を運ぶ 6143
と述べました 6142
を促し 6142
殻 6142
ているのは 6141
(2019 6140
去る 6140
▁Device 6138
主人公 6137
お問い合わせフォーム 6136
方法論 6136
注釈 6136
示されています 6136
社会的な 6136
場として 6135
と信じ 6134
と呼ばれています 6134
アダプター 6133
影響を及ぼす 6133
進捗状況 6133
おもてなし 6132
当事務所 6132
240 6129
この作品 6129
フランク 6129
ori 6128
ことができるので 6128
FAX 6127
uro 6127
講じ 6127
離婚 6127
IND 6126
それについて 6125
という考え 6125
標本 6124
place 6123
ご記入 6122
てきて 6122
実体 6122
着色 6122
OST 6121
有効期間 6120
▁Gays 6118
ダウンロードした 6118
を伸ばし 6117
明示的に 6117
いたしません 6116
ために使用される 6116
米軍 6116
オペ 6115
ミサイル 6115
ヤフー 6115
怖 6115
++ 6114
—— 6114
ステレオ 6114
抗生物質 6114
耕 6114
-18 6113
占 6113
述べている 6113
出来ます 6112
変わってい 6112
を乗り越え 6111
アイドル 6111
有名です 6111
構成要素 6111
写真集 6110
焼く 6110
▁(@ 6109
が生じた場合 6109
万台 6109
▁had 6108
て参ります 6108
のうえ 6108
一人一人 6107
真珠 6107
郭 6107
上演 6106
450 6105
local 6105
グループ各社 6105
育った 6105
60% 6104
▁post 6104
お湯 6104
それはすべて 6104
に挑戦し 6104
椎 6104
を元に 6103
を保ち 6102
入会 6102
広々とした 6102
もあって 6101
を識別する 6101
▁オペレーティングシステムや 6099
が入って 6099
されることがあります 6099
を目的に 6099
会計監査人 6098
大学院生 6098
お願い致します 6097
エキサイティングな 6097
向かう 6097
対戦 6095
急激に 6095
数ヶ月 6095
を下げる 6094
を知ること 6094
ここまで 6093
存続 6093
豪雨 6093
ドバイ 6092
承認された 6092
鈍 6092
後押し 6091
Hand 6090
照らし 6089
2025 6088
を救う 6088
ハイテク 6088
酷 6088
問題が発生し 6087
本質的に 6086
出会う 6085
ガラ 6084
の厚さ 6083
という問題 6082
▁Solution 6081
スイーツ 6081
を供給する 6080
併設 6080
に適切となる 6079
ファイル拡張子により 6079
ZIP 6078
user 6078
ユーザーご自身は 6078
融 6078
頂いて 6078
その形式を認識 6077
ベンチ 6077
Salesforce 6076
を試す 6076
失業 6076
▁大抵の場合 6075
の方々に 6075
バイヤー 6075
ファイルをどうやって開くか 6075
ソート 6074
合致 6073
追加された 6073
当たり前 6072
▁been 6071
フォース 6071
の大部分 6070
接合 6070
腎 6070
やりたい 6069
温かい 6069
芳 6069
1-2 6066
ハーバー 6066
をはじめとした 6065
を行う必要があります 6065
マリン 6065
必要とされ 6065
関わっ 6065
流入 6064
を割り当てる 6063
規 6060
便利で 6059
-16 6057
を図っています 6057
を繰り返す 6057
互い 6057
に連れて 6055
キッズ 6055
させるための 6054
娯楽 6053
待つ 6053
▁What 6052
に関するお問い合わせ 6052
如何 6052
Dr 6051
image 6049
ていきました 6049
遷移 6049
バトル 6048
岐阜 6048
指示に従って 6048
ku 6047
どうしたら 6047
ワークロード 6047
台数 6047
デリバティブ 6046
定性的 6046
小学生 6046
ICS 6045
衣服 6044
お客様のニーズ 6043
上げて 6043
天使 6043
uni 6042
▁Agency 6042
スケッチ 6042
ノートパソコン 6042
揃 6042
serv 6041
SEO 6039
ことではありません 6039
負う 6039
あふれ 6038
刃 6038
開いている 6038
RFID 6036
異動 6036
ことを目的に 6035
に分けられ 6034
▁Post 6032
どこから 6032
納得 6032
ified 6031
大変な 6031
UV 6030
を引き起こす可能性があります 6030
スカーフ 6030
脆弱 6030
NN 6029
東北大学 6028
ダイバーシティ 6026
ことを意味する 6025
舌 6025
提供している 6024
播 6023
▁Foundation 6022
六本木 6021
デフレ 6020
を信じる 6019
を活かした 6019
のでご注意ください 6018
経済発展 6018
飲食店 6018
を整備し 6017
込められ 6017
Evernote 6016
を監視し 6016
安定的な 6015
保存する 6014
EF 6013
住み 6013
分かって 6013
ニュアンス 6012
に向かう 6011
LM 6010
Vision 6009
ステップバイステップの 6009
金沢 6009
ことも可能です 6007
剰余金 6007
理論的 6007
推計 6006
TCP 6004
が高まる 6004
を許可する 6004
引当金 6004
課題の解決 6004
きれい 6003
それは非常に 6003
企業活動 6003
被爆 6003
設立され 6003
▁Products 6002
オプションがあります 6002
ッジ 6000
させていただく 5999
もございます 5999
MG 5997
きれいに 5997
認められる 5997
削除する 5996
が見られる 5995
お金を節約 5993
こともできる 5993
を確認して 5993
ピーター 5992
リーチ 5992
状況について 5992
ベッドルーム 5991
何年も 5991
情報交換 5991
で一番 5990
との対話 5989
の中にある 5989
者数 5989
賃料 5989
スチール 5988
雇用主 5987
この地 5984
になっていた 5984
中核 5984
し続け 5982
エール 5982
双方向 5982
大切に 5982
poli 5981
されるべき 5981
を右クリックし 5981
情報を提供する 5981
どれも 5980
賞受賞 5980
責任ある 5979
設立されました 5978
を無効に 5977
号機 5977
PF 5975
ロッ 5975
!!! 5974
コントロールパネル 5974
パンフレット 5974
について考え 5973
元々 5973
PU 5972
リニア 5972
著名な 5972
が開催され 5971
システムズ 5971
ダイオード 5971
十分です 5971
時間がかかります 5971
▁へのフライト 5970
ご相談ください 5970
月経 5969
目標を達成する 5969
5.1 5967
カラフルな 5967
mar 5966
TU 5965
に適 5965
執行役 5964
風力発電 5964
会員登録 5962
Zip 5961
を実現しています 5959
エリート 5958
サイバーセキュリティ 5958
フィギュア 5958
俺 5958
定義された 5957
否定的な 5956
躍 5956
/06/ 5955
中長期 5955
撤 5955
最低限 5954
温暖化 5954
切った 5953
北極 5953
インストールが終わると 5952
割れ 5952
行えます 5952
できなくなります 5951
まつり 5951
別々の 5951
採掘 5951
▁Hot 5950
デバイスは正常に動作する 5949
25% 5948
を捉え 5948
モンスター 5948
並べ替え 5948
今月 5948
Version 5947
昨今 5947
▁United 5946
をたくさん 5946
最高品質の 5946
脂 5946
サイクリング 5945
フェリー 5945
減価償却 5945
One 5943
▁Workspace 5942
ボタンを押し 5942
ガジェット 5941
祖父 5941
▁Bio 5940
を取り上げ 5940
ハッキング 5940
が形成され 5938
なくてはならない 5938
コック 5938
ことが可能である 5937
シルク 5937
という点で 5936
塵 5935
寄贈 5934
WhatsApp 5933
▁Partner 5933
可能性があるため 5933
繊細 5933
債 5932
ヘイ 5930
に対処し 5929
又 5929
愛する人 5929
決勝 5928
蘇 5928
ケニア 5927
ソフトウエア 5925
進んでいる 5925
目指す 5924
▁really 5922
ことを意味し 5922
入院 5922
暗く 5922
エコノミー 5921
貸借対照表 5921
▁Bra 5920
ランニング 5920
拒絶 5920
気づいた 5920
超過 5920
月額 5919
への道 5918
ナビゲート 5917
ことができるのです 5916
複合体 5916
いただいております 5915
すぎて 5915
自発的 5915
あくまで 5914
沿 5914
隣接する 5914
中継 5912
好奇心 5911
開発途上国 5911
模型 5910
収支 5909
意外 5909
してしまった 5908
を知らない 5908
▁Technologies 5907
順守 5906
そしてあなたは 5905
を表します 5905
後退 5905
折りたたみ 5905
現れます 5905
を追加して 5904
必要不可欠 5904
新型コロナ 5904
順位 5904
と思っていた 5902
希少 5902
アクセス権 5901
一枚 5901
かず 5900
めったに 5900
001 5899
湿気 5899
MAC 5897
JO 5896
合って 5896
目の前に 5896
デリバティブ取引 5894
レーシング 5894
適宜 5894
Super 5893
きわめて 5893
◆ 5892
を教える 5892
アルゼンチン 5891
はございません 5890
に合わせ 5889
に対応できる 5889
可能性があること 5889
MOD 5888
神経系 5887
魅了 5887
齢 5887
すぐにコンピュータの 5886
の方へ 5885
を実施すること 5885
キャンドル 5885
専門家のアドバイスや 5885
不可能です 5884
競合他社 5884
屋さん 5883
ashi 5881
を妨げる 5880
プログラムを利用することにより 5879
変換に役立つ 5879
OUR 5878
キャベツ 5878
純資産 5878
カーネル 5877
前項 5877
是正 5877
看護 5877
メディカル 5876
存在している 5875
重ね 5875
けなかった場合でも 5874
売り手 5873
私たちのサイトにある 5873
ファイルの開閉に関する問題を 5872
一郎 5872
専門家に助けを求める必要 5872
脊 5872
を持つファイルを開 5871
エルサレム 5870
ファイルの開閉や 5869
低炭素 5869
目覚め 5869
ある種の 5868
и 5867
を配置し 5867
南北 5867
税込 5867
申立 5866
かかった 5865
日開催の 5865
自動車メーカー 5865
集まった 5865
Yahoo 5862
法案 5862
違います 5861
に行きました 5860
重要課題 5860
されてきました 5858
一例 5858
プロセッサー 5857
慶應義塾大学 5857
申請書 5857
INT 5856
日前 5856
せば 5855
ムラ 5854
福音書 5854
たはずです 5853
政治家 5853
LOG 5852
2050 5851
OTO 5851
ニウム 5851
落下 5851
BOX 5850
西側 5850
を所有し 5848
He 5847
INE 5847
受け取る 5847
精神的な 5847
を加えた 5846
切り取り 5846
問題を修正 5845
潜在的 5845
接点 5843
-17 5842
欄に 5842
は以下のとおりです 5841
を育てる 5841
pm 5840
カスタマーサポート 5840
不快感 5839
相違 5839
表示されません 5838
TED 5837
はじめて 5837
マスタークラス 5837
ホールディングス株式会社 5836
▁their 5834
を変更します 5834
労働力 5834
するのではなく 5833
をテーマにした 5833
CZ 5832
悔 5832
接続された 5832
擁 5832
東京証券取引所 5832
が増える 5831
グリー 5831
デベロッパー 5830
空調 5828
証言 5828
パンツ 5827
gh 5826
を引き起こします 5826
Bo 5825
ウォ 5824
名様 5824
少量の 5824
平日 5824
Comp 5823
保存された 5823
社会貢献 5823
CN 5820
改装 5819
てしまいました 5818
英文 5817
三井物産 5816
重要なこと 5816
Mar 5815
生殖 5815
読書 5814
スプーン 5813
しまい 5811
の同意を得 5811
を図ります 5811
人のために 5811
well 5810
を目指した 5810
を移動する 5810
を試みる 5810
且つ 5810
世界観 5810
受入 5810
Remo 5808
向こう 5808
コンソーシアム 5807
を見つけるために 5806
を引き出す 5805
余り 5804
バーコード 5802
を高めるために 5801
アーム 5800
燃料電池 5798
資産運用 5798
できている 5797
に連絡する 5796
オープニング 5796
を動かす 5795
何よりも 5794
ていませんでした 5793
包み 5793
鉛 5793
開くことができるという 5792
がないため 5791
rel 5790
を選択すること 5789
分裂 5789
田舎 5788
に広がる 5787
を送って 5787
への支援 5786
▁Ka 5785
短時間で 5785
ヒート 5784
出生 5783
思っています 5783
製品やサービス 5783
隔離 5782
使われます 5780
次第に 5780
アムネスティ 5779
起きる 5779
を獲得し 5778
を製造する 5777
成し遂げ 5776
を中心として 5775
本公開買付け 5774
税率 5773
ッサ 5770
共同体 5769
の一種 5768
を余儀なくされ 5767
を行使する 5767
赤字 5767
作製 5766
Pan 5765
工科大学 5765
ターゲティング 5764
海軍 5764
オーケストラ 5763
大正 5763
マニキュア 5762
責務 5760
をつける 5759
Car 5758
主力 5758
何百万 5758
夜景 5758
長い時間 5758
してくれます 5757
エネルギー効率 5757
改ざん 5757
思った 5756
日本でも 5756
を行う場合 5754
学期 5754
赦 5754
いただいて 5753
が行われている 5753
ソケット 5753
情報源 5753
自慢したい 5750
何千 5749
ツイン 5748
体育 5748
建造物 5747
美味しく 5747
てしまい 5746
孝 5746
4.2 5744
を再開 5744
一生 5744
賛同 5744
/12/ 5743
が予想され 5743
を導入する 5743
仮説 5743
何十 5743
アウトレット 5742
原爆 5742
守る 5741
描かれた 5741
蜂蜜 5741
エクスプローラ 5740
ノース 5740
長距離 5740
を取り扱うプログラムのリスト 5739
コレステロール 5739
対面 5739
提供すること 5739
姫 5738
年度末 5738
幾つか 5737
ito 5736
cul 5734
各地域 5734
ココナッツ 5733
文法 5733
の仕方 5732
怪 5732
男子 5732
に渡り 5731
-14 5730
をお願いいたします 5730
科学研究科 5730
ことが可能になります 5729
UX 5728
スタイリッシュな 5728
という疑問に対する答え 5727
ブランチ 5727
ご注意ください 5726
したりできます 5726
を含み 5725
所蔵 5725
にふさわしい 5724
剛 5724
枕 5724
Phil 5723
されなければならない 5723
ランキングを掲載し 5723
隠された 5723
ナイキ 5722
地理 5721
教科書 5721
質問に答え 5721
刑務所 5720
tel 5719
に何度か遭遇し 5719
を探していくうちに 5719
〇 5718
油圧 5718
無効化 5718
が見込まれる 5717
吸い 5717
を支持し 5716
食器 5716
もらいたい 5714
快適で 5713
おられる 5712
盗難 5710
を築き 5709
ステーキ 5709
ダンサー 5709
SAP 5708
合理的に 5708
あなたはそれ 5707
に取り組んでいる 5707
勘定 5707
見つからない 5707
BGM 5705
が好きです 5703
を排除し 5703
偵 5703
転移 5703
と同じくらい 5701
移り 5700
スナップ 5699
マイニング 5698
優しく 5698
自然環境 5697
の良さ 5696
吊 5696
トリミング 5695
探検 5694
開きます 5694
なかで 5691
生産能力 5691
資産運用会社 5691
始めましょう 5690
アマゾン 5689
を設定できます 5688
接種 5687
返還 5686
lab 5685
続けること 5685
要件を満たす 5685
視覚的に 5685
くら 5684
だったのです 5683
整合性 5683
0.7 5682
本当に行って良かった 5682
遣 5682
Ba 5681
の口コミを基に 5681
んですね 5680
ポル 5680
完璧 5680
解約 5680
買った 5680
3.2 5679
安全管理 5678
map 5677
らしく 5677
お待ちしております 5676
蛍光 5676
LinkedIn 5675
WP 5674
NK 5673
zip 5673
実効 5673
構文 5673
獲 5673
▁which 5670
を実施します 5670
を置きます 5670
信者 5670
感じられ 5669
難易度 5668
ali 5667
ハル 5667
とみなされ 5665
冒頭 5665
cast 5664
段落 5664
グーグル 5662
olar 5661
または削除 5661
絶滅 5660
覧 5658
におきまして 5657
晴れ 5657
民間企業 5657
View 5656
人格 5655
高原 5655
働きかけ 5654
リレー 5653
られていた 5652
スキャナ 5652
アイスクリーム 5651
含有 5651
ISA 5648
俗 5647
を実装する 5646
service 5645
▁Club 5645
なじみ 5645
▁Park 5644
っていません 5644
を販売し 5643
理解する 5643
臓 5642
癒 5641
を強調する 5640
を抑え 5640
プロダクション 5640
RNA 5638
飛ぶ 5638
が完了すると 5637
▁会社情報 5635
を行ってください 5635
アフィリエイト 5635
崖 5634
悲しみ 5634
が低く 5633
やっぱり 5633
ネットワーキング 5632
鎌倉 5632
お父さん 5631
お祭り 5631
シャープ 5631
と同じです 5629
ないのです 5629
ini 5628
を注ぐ 5628
期待される 5628
純粋 5628
本ソフトウェア 5627
-03 5626
見つけた 5626
郊外 5626
が集まり 5625
単独で 5625
問題の解決 5625
退職給付 5624
verse 5623
ことができれば 5622
議案 5621
食事療法 5621
磁石 5620
知った 5619
各自 5618
0.6 5617
果たす 5617
恩恵 5615
ニクス 5614
代行 5614
物資 5614
てくださった 5613
模倣 5613
丁目 5612
髪の毛 5612
クラウドサービス 5611
ミール 5611
湧 5611
の隣に 5610
クリス 5610
溢れる 5610
生み出され 5610
文部科学省 5609
1988 5607
On 5607
岳 5607
Go 5605
Talk 5604
ification 5604
ことができず 5603
ティス 5602
求められている 5602
救急 5600
プラザ 5598
事実上 5598
合理的 5598
孤独 5598
珍 5598
550 5597
について考える 5597
個人情報の保護 5597
取り揃え 5597
techno 5596
を理解すること 5596
エディション 5596
審査員 5596
した際に 5595
ツールを使用して 5595
完璧に 5595
ビデオファイル 5594
王子 5594
良好 5594
もう一つ 5593
バックパック 5593
合わせた 5593
あなたにとって 5590
と述べています 5590
申請者 5589
教養 5588
喉 5587
砕 5586
わかりやすく 5585
労力 5585
結構 5585
lat 5584
ras 5583
協力して 5583
を配置する 5581
プレゼン 5581
桂 5581
紐 5581
高機能 5581
zo 5580
大都市 5580
将来的に 5580
新技術 5579
株式数 5579
生産ライン 5579
直近 5579
フロ 5576
であることを確認 5575
▁Profile 5574
ケミカル 5573
送る 5573
を登録する 5571
を提供できる 5570
ツェ 5570
化粧 5570
阻止 5570
Christ 5569
昌 5569
渦 5569
利用される 5567
ポリス 5566
指定する 5566
沈黙 5566
んだけど 5565
ラマ 5565
結成 5564
レトロ 5563
フライパン 5562
信用リスク 5562
でいっぱい 5561
増進 5561
▁このような状況 5560
体積 5560
盲 5560
行なわれ 5559
サステナブル 5558
メータ 5558
それ以降 5557
ロッド 5557
▁メーカーは 5556
のではないかと 5555
ヒューマン 5555
活力 5555
減少する 5555
コテージ 5552
口コミランキング 5552
サマー 5551
務め 5551
数年前 5551
紹介します 5551
▁Ra 5550
を発見した 5550
STA 5549
サーフィン 5549
前立腺 5549
数十年 5549
匠 5548
拓 5547
本土 5547
見たい 5547
二つ 5546
無事 5545
行える 5545
作られている 5544
クリックします 5542
昔から 5541
見かけ 5539
差額 5538
Point 5537
超え 5537
チェンジ 5536
▁詳細はこちら 5535
選んだ 5533
リフレッシュ 5532
ado 5531
レジデンス 5531
当社及び 5531
センシング 5530
(※ 5529
Pre 5529
-08 5527
具体的 5527
3.3 5526
住んでいた 5525
方が良い 5525
見事な 5525
ステンレス 5524
恐ろしい 5524
和解 5522
重症 5522
できませんでした 5521
勘 5521
関係会社 5521
⋆ 5520
を記録する 5520
子孫 5520
招集 5519
支部 5517
最新版 5517
Crypto 5516
償 5516
PROJ 5515
ドメイン名 5515
space 5514
一杯 5514
付随 5514
▁Files 5513
に変える 5513
質感 5513
を着て 5512
バリュー 5512
▁詳細を見る 5511
が搭載され 5511
bian 5510
ホース 5510
鶴 5510
に頼る 5509
ゲストハウス 5509
pot 5508
にくく 5508
を完成させ 5508
スクエア 5508
初日 5508
納品 5508
設定ファイル 5508
私は私の 5507
開館 5507
xi 5506
瞑想 5506
綱 5506
を購入し 5504
サタン 5504
二十 5504
してみましょう 5503
東海 5503
会った 5501
公衆 5501
動作する 5501
玄関 5501
になる可能性があります 5500
を巡る 5500
tar 5498
ことを目的とした 5498
▁Onlinesaleus 5497
朗 5497
ロマンチックな 5495
培ってきた 5495
隠し 5495
Over 5493
ダイエット 5493
準備ができて 5493
粘膜 5493
▁日本のポルノチューブ 5491
Care 5490
ことができるでしょう 5490
されなかった 5489
量的 5489
close 5488
に同意した 5487
ブーム 5487
Central 5486
頂きました 5486
に耐え 5485
収集する 5485
気づく 5485
に記載された 5483
1987 5482
虐待 5481
シナジー 5479
▁German 5478
傘 5477
World 5476
ago 5476
偉 5475
(2013 5474
▁Gen 5474
慮 5474
を開いた 5473
聴衆 5473
終了します 5472
亀 5470
次々と 5469
KK 5468
することが重要です 5467
に見えます 5467
を通って 5467
させて頂きます 5466
を描いた 5465
増加している 5465
ことがよくあります 5464
room 5463
を販売する 5463
ことを目的とし 5462
は以下の通りです 5462
シドニー 5462
提供されている 5462
ICU 5461
お客さん 5461
持分法 5461
図形 5460
憲章 5460
異常な 5460
バナナ 5459
をカバーする 5457
在留 5457
飛躍 5457
座って 5455
顧 5455
座っている 5454
禁煙 5454
市場において 5453
静的 5453
▁Apps 5452
を逃 5452
事項について 5452
みましょう 5451
置換 5451
経路図 5450
ブティック 5449
ニカ 5448
フレンドリー 5448
老人 5448
あなただけ 5444
これらすべての 5444
について話す 5444
定員 5444
教徒 5444
栄え 5443
表示します 5443
ハマ 5441
銀行口座 5440
一流の 5438
ダイアログボックス 5437
構造物 5436
を見ること 5435
なかでも 5434
についての情報 5434
を行なう 5434
装飾的な 5434
を考慮に入れる 5433
コンディション 5433
胎児 5433
▁関連記事 5432
を統合し 5431
に着手 5430
ATM 5429
される可能性があります 5429
インスタント 5429
地質 5429
15% 5428
に入ります 5428
波形 5428
CAP 5427
述べられ 5426
rew 5424
コンバーター 5424
誘惑 5423
▁Ki 5422
みなさま 5421
バルセロナ 5421
を必要としない 5420
向上のため 5420
撤退 5420
を制御し 5419
コラム 5419
データを収集 5419
に関与し 5418
発熱 5416
イノ 5415
中村 5415
探している 5415
都会 5415
トロン 5413
1985 5412
実験室 5412
ラグビー 5409
Show 5408
ane 5408
ウエスト 5408
別れ 5408
妹 5408
組み合わされ 5408
工業株式会社 5407
蝶 5405
Record 5404
にかかわる 5404
を最小限に抑える 5403
なのに 5402
1.6 5401
los 5401
づける 5399
を費やす 5399
刺繍 5398
速報 5398
を指す 5397
mg 5396
学士 5396
▁この間 5395
を享受 5395
木々 5394
1950 5393
サウス 5392
近所 5392
醤油 5392
ique 5391
をクリックする 5391
京都市 5391
願望 5391
に示すように 5390
妥協 5390
青少年 5390
JAV 5389
内訳 5389
徴候 5389
送信される 5389
届出 5388
貝 5388
医学部 5387
注意を払って 5385
おかげで 5383
主義者 5382
▁Premiere 5381
厚生 5381
複 5381
*1 5380
ヵ月 5380
近代的な 5380
ボイラー 5379
国際化 5379
ken 5378
コットン 5378
なくなりました 5377
既知の 5377
lit 5376
マーキング 5376
前方 5376
紅茶 5376
php 5375
づけられ 5375
ノル 5374
フェル 5374
海域 5374
ボタンをクリックすると 5373
— 5372
他国 5372
になれる 5371
地中海 5371
アジア地域 5370
悪意のある 5369
海底 5369
cookie 5368
ニセコ 5367
Galaxy 5365
構造改革 5365
店頭 5364
生徒たち 5364
燃費 5363
飲む 5363
ガレージ 5362
創薬 5362
嘆 5361
懲 5361
楕 5361
macOS 5360
に戻す 5360
action 5359
現実的な 5359
/07/ 5358
▁every 5358
▁私たちのサイトに 5358
なってきた 5358
英雄 5357
口頭 5355
弟 5355
EB 5354
スタジアム 5354
普遍的な 5354
TLS 5353
順番に 5353
と組み合わせて 5352
に着目し 5351
甲状腺 5351
過酷な 5351
▁よって 5350
を抑える 5350
が完了したら 5349
マネージメント 5349
に近づく 5348
初期段階 5347
種別 5347
名古屋大学 5345
配管 5345
百万円となりました 5344
遮 5344
fil 5343
発効 5343
親愛なる 5343
静脈 5343
ぼう 5341
ないだろう 5340
歌詞 5340
▁TwitCasting 5339
充分 5338
買い手 5338
▁第二に 5337
ていないこと 5337
よりよい 5337
罰金 5337
いつか 5336
蘭 5336
何人かの 5335
翌年 5335
oper 5334
ちょ 5334
Tri 5333
クールな 5332
履 5332
鑑定 5332
ナッシュ 5331
商社 5330
色彩 5330
リム 5329
援 5329
過度の 5329
フェイスブック 5328
フュー 5328
還 5327
link 5326
軽量化 5326
ゲームプレイ 5325
定番 5325
投資主 5325
浪 5325
てくれ 5324
の制作 5324
同定 5324
不法 5323
身体的 5323
取り扱いが可能なプログラム 5322
カナ 5321
位相 5321
XS 5320
▁Not 5320
アース 5320
ならず 5318
コマンドを実行 5318
CAN 5317
▁Sch 5317
▁Note 5316
ゾー 5316
同意する 5316
据え 5316
アセスメント 5315
で構成される 5312
現代的な 5312
2-3 5310
よかった 5310
吉田 5310
exp 5309
pr 5309
ようになって 5309
をカバーし 5308
0.00 5307
縫い 5307
月以降 5306
conf 5305
を支援します 5305
以下の通り 5305
考案 5305
あん 5304
できるのは 5304
漢字 5304
細い 5304
rd 5303
楽しみにしています 5303
豊富な経験 5303
局面 5302
慣習 5302
金融資産 5301
んですけど 5300
リンゴ 5300
▁このイベントは終了しました 5299
ウサギ 5299
が集まる 5298
作曲 5298
run 5297
金融サービス 5297
闘い 5297
つけられ 5296
イカ 5296
ヘッダ 5296
印象的 5296
天文学 5296
を削減する 5295
説明しています 5294
Snowflake 5292
取り込み 5292
ized 5291
お取引先 5291
を持っていること 5291
ベアリング 5291
地方自治体 5291
消滅 5291
飼育 5291
浩 5290
読んでください 5290
全域 5289
ADA 5288
いける 5288
妥当性 5288
行きたい 5287
はもとより 5286
レジスタ 5285
の範囲内で 5284
を高めること 5284
アドオン 5284
分散型 5284
を編集する 5282
ウェブページ 5282
ハング 5282
見つけられ 5282
ファイルを削除 5281
蛇 5281
工作 5280
手袋 5279
これまで以上に 5278
教える 5277
正式 5276
aya 5274
憎 5274
とその簡単な説明 5273
アクセント 5273
信頼関係 5272
が選択され 5271
をお楽しみいただけます 5271
インフォメーション 5271
いずれにせよ 5270
マイケル 5270
およびそのファイルの 5269
常識 5269
お食事 5268
として知られる 5267
ワクチン接種 5267
実現する 5267
ARI 5266
ファイル拡張子に関する情報 5266
お過ごし 5265
に出席し 5265
BU 5264
で活躍する 5264
を意識し 5263
ウェビナー 5262
期日 5262
ことが重要である 5261
を強化するため 5261
を破壊する 5261
コーディネート 5261
1,0 5259
オンデマンド 5259
捜査 5259
接近 5259
連結業績予想 5259
鐘 5259
包括 5258
専門店 5258
解き 5258
適合性 5258
support 5257
どうしても 5257
食堂 5257
APP 5256
に設置され 5256
井戸 5254
拡張子 5254
行きます 5254
cu 5252
有限 5252
1986 5251
▁also 5251
を満喫 5251
クロノグラフ 5251
PORT 5250
cover 5250
増幅 5249
警 5249
お考え 5247
水族館 5247
められ 5246
三つの 5246
つの異なる 5245
の中心が地 5245
順番 5245
▁月の出入り 5244
を獲得した 5244
減益 5244
高等教育 5244
alt 5243
に伴って 5243
ヴィラ 5242
▁Database 5241
試行 5240
Mark 5239
一意 5239
占め 5239
電子レンジ 5239
トランジスタ 5238
REA 5237
タイマー 5237
第二次世界大戦 5237
保険料 5236
受信者 5236
欲望 5236
の詳細ページ 5235
aff 5233
▁それにもかかわらず 5233
バスケット 5233
住む 5233
大部分 5233
弥 5233
直接的 5232
している間 5231
粛 5231
豚肉 5231
IVE 5230
に従います 5229
医薬 5229
設立した 5229
牛肉 5228
生まれました 5228
起きている 5228
信じる 5227
アーチ 5225
手順に従って 5225
償却 5224
思いやり 5224
電子メールアドレス 5224
を進めている 5223
ビデオカード 5223
直接的な 5223
取消 5222
情報処理 5222
Guo 5221
▁Innovation 5220
オナニー 5220
影響を受けた 5220
薬局 5220
atter 5219
というわけではありません 5219
搬送 5219
歌舞伎 5219
現実的 5219
ことが必要です 5218
制御システム 5218
放置 5218
▁Act 5217
に適している 5217
シャフト 5217
山本 5217
成長戦略 5216
高血圧 5216
環境省 5215
REC 5214
コスプレ 5214
時間以内に 5213
自分の手で 5213
Script 5210
受信機 5210
欧州連合 5210
よいでしょう 5209
好ましい 5209
WD 5208
コンバージョン 5208
垂 5208
NAS 5207
パウダー 5207
起業 5205
無人 5204
聴覚 5204
Shift 5203
ものだった 5203
行ける 5203
始動 5202
賞金 5202
Track 5199
に興味がある 5199
繰り返され 5199
о 5198
前向きな 5198
入浴 5197
有力 5197
聞かれ 5197
動物園 5196
農民 5196
を分析する 5194
1500 5193
シルエット 5193
を表示するには 5192
中世 5192
から離れ 5191
がもたらす 5191
申 5191
企業理念 5189
咳 5189
経営戦略 5189
経済産業省 5189
動力 5188
泰 5187
警備 5187
キム 5186
ポインタ 5186
root 5185
して以来 5185
創設者 5185
情報収集 5185
礁 5185
飛ば 5184
-05 5183
ico 5183
実施された 5183
有利な 5183
洗い流し 5183
清算 5182
飲食 5182
があるかもしれません 5181
バンドル 5181
警戒 5181
を継続する 5180
チョウ 5180
ヘッドフォン 5180
発射 5180
見えた 5180
▁コメントをキャンセル 5179
利益率 5178
拠出 5177
教育プログラム 5175
なるべく 5174
できるような 5173
に帰属する 5173
出来ません 5173
光源 5172
方策 5171
献 5171
コショウ 5170
ハーフ 5170
経営理念 5170
実践的な 5169
▁総合情報 5168
に移動して 5168
オンプレミス 5166
疾病 5165
おしゃれ 5164
咲き 5164
絆 5164
が不足し 5163
交差 5163
問題なく 5163
情報発信 5163
風邪 5162
-04 5160
Auth 5160
Process 5160
bar 5160
share 5160
紫外線 5160
を見せる 5159
▁Day 5158
知り合い 5158
とは別に 5156
を確認した 5156
もうひとつ 5155
パスタ 5155
農薬 5155
飼料 5155
ポーカー 5154
Page 5153
さまざまな種類の 5153
サウナ 5153
小林 5153
伝導 5152
工学研究科 5152
強調表示 5152
CCP 5151
が施され 5151
を有しており 5151
一本 5151
恒久的な 5151
渓谷 5151
貨 5151
Global 5150
チャージ 5150
本稿 5150
matic 5149
が含まれており 5149
インタラクティブな 5149
エラーが発生し 5149
廊 5148
理由により 5148
BIOS 5146
RAW 5146
▁Machine 5146
ゃ 5146
事業会社 5146
THE 5145
アウトドア 5144
を創造する 5143
入試 5143
確か 5143
上野 5142
が必要だ 5141
次期 5140
符号 5140
を使用することをお勧めします 5139
を追加しました 5139
キノコ 5139
県内 5139
Or 5138
tail 5138
委任 5137
OO 5136
から始まります 5136
もらって 5136
書面による 5135
那 5135
ポテト 5134
一言 5134
戦略的な 5134
正式な 5134
箔 5134
ホーチミン 5133
に出かけ 5132
を埋める 5132
価値のある 5132
▁そのためには 5131
共同利用 5131
取り上げ 5131
に参加して 5130
ぺ 5130
反転 5130
幾何学 5129
悲しい 5129
inal 5128
狙い 5128
nan 5127
ump 5127
秒間 5127
▁Directory 5126
を描いて 5126
ato 5124
読め 5124
を加えて 5123
オンラインカジノ 5123
傾斜 5123
しかありません 5122
戻し 5122
捉える 5121
JAXA 5119
▁このようにして 5119
データソース 5119
友情 5118
話した 5118
電機 5118
に座って 5117
ゆえに 5117
付け加え 5117
を行うための 5116
内のすべての 5116
役職員 5116
設定できます 5116
で問題を引き起こす 5115
を右クリックして 5115
ソファ 5115
ピンする 5115
内閣 5115
嫌い 5114
鮮明 5114
ことを知っています 5113
を保護するために 5113
デリバリー 5112
表紙 5112
高める 5111
辿 5110
▁日の出入り 5109
になるだろう 5109
太陽の上辺が 5109
魅 5108
ナプキン 5107
を支持する 5106
プログラムの最新バージョン 5106
num 5105
だって 5105
online 5104
クエスト 5104
人権侵害 5104
同行 5103
当社のウェブサイト 5102
永続 5102
ACT 5101
ude 5101
契機 5101
煎 5101
傑作 5099
数秒 5099
水処理 5099
出せる 5098
弾性 5098
外国為替 5097
斎 5097
EAR 5096
修士課程 5095
私ども 5094
が適用され 5093
AKA 5091
を作成することができます 5089
事業部 5089
周年を迎え 5088
によって引き起こされる 5087
証券取引所 5087
sys 5086
まいります 5085
ステッカー 5084
小型化 5084
投影 5084
▁Association 5083
▁Skip 5083
ドール 5083
発展に貢献 5082
参照してください 5081
配合 5080
大阪府 5079
水質 5079
稀 5079
これはどういう意味ですか 5078
を保存します 5078
ウイルス対策 5078
崩れ 5078
CNC 5077
レコーディング 5077
何をすべきか 5077
を設立し 5076
勧誘 5076
人もいます 5074
動いてい 5073
可能性のあるバグを修正する 5073
指令 5073
青色 5073
テイク 5072
根本的な 5072
▁Friends 5070
につれ 5070
今年も 5069
栗 5069
つめ 5068
使った 5067
感のある 5066
警報 5066
アマチュア 5065
炭水化物 5065
目撃 5065
黙示 5065
ather 5064
をいいます 5064
スペル 5064
乾燥した 5064
リンク先 5063
雑貨 5063
を再生する 5062
使えます 5062
ボストン 5059
大多数 5057
最寄りの 5057
負傷 5057
▁Select 5055
を動かし 5055
コンパイラ 5055
作戦 5055
家屋 5055
検察 5055
フレンド 5054
消防 5053
したうえで 5052
ことはできますか 5051
感染者 5051
が可能となり 5050
共同開発 5050
屋台 5050
編集者 5049
に渡って 5048
を広げる 5048
モチベーション 5048
毒性 5048
SAR 5047
lor 5047
あえて 5047
レーザ 5047
抵 5047
相続 5046
見たこと 5046
カーペット 5044
talk 5043
に満ち 5043
ロジスティクス 5043
をもち 5042
を選択した場合 5042
ブリュッセル 5041
メンバーシップ 5041
▁お客様の声 5040
ノズル 5040
GDPR 5039
カウ 5038
スプレッド 5038
フェイス 5038
分解能 5038
ことを目指し 5037
を求めている 5036
power 5035
月上旬 5035
UND 5034
を探して 5033
ライス 5033
回答者 5033
住んでいる 5032
フィリップ 5031
ラインアップ 5031
報告セグメント 5031
犯罪者 5030
積極的 5030
ble 5029
っきり 5029
異文化 5029
あわせ 5028
oz 5026
▁このウェブサイトは 5026
てみると 5026
厚く 5025
ぱ 5024
占領 5024
心がけ 5024
緑色 5024
してほしい 5023
軽食 5023
プロジェクター 5022
明確化 5022
実際の天気 5021
▁最終更新日 5020
ジョージ 5020
筆者 5020
豊かで 5020
お試しください 5019
セントラル 5019
申込み 5019
▁Europe 5018
てはならない 5018
アルファベット 5018
バルク 5018
していなかった 5017
尊厳 5017
に耐える 5016
増加します 5016
これらの平均 5015
錯 5015
▁Communication 5014
航空宇宙 5014
願います 5014
収縮 5013
旅行を計画する際には 5013
閣僚 5013
非常に多くの 5013
build 5012
▁Editor 5012
合わ 5012
ビルディング 5011
格付 5011
クランプ 5010
CRM 5009
をつくっ 5009
値と異なる場合があること 5009
long 5007
バンキング 5006
広州 5006
覚書 5006
最小化 5005
早朝 5004
測定値 5004
行くことができます 5004
レーダー 5003
自慢 5003
Safari 5002
ura 5002
を収集し 5002
激化 5002
点滅 5002
キリ 5001
ザル 5001
データ転送 5001
ゅ 5000
アイランド 5000
付着 5000
新生児 5000
グラウンド 4998
質疑応答 4998
商店街 4997
を図ること 4996
澄 4996
バード 4995
抗菌 4994
振りかけ 4994
植民地 4994
見極め 4994
理解を深め 4993
の横にある 4991
print 4989
▁Privacy 4988
クイーン 4988
ニーズに対応 4988
掘り 4988
研究機構 4987
にはどうすればよいですか 4986
派生 4986
かということ 4985
挟 4985
薄型 4985
First 4984
と見なされます 4984
を拠点に 4984
アーク 4984
cor 4982
Flow 4981
しょう 4981
に向けた取り組み 4981
をオンにする 4981
▁House 4980
奪われ 4980
5.5 4979
を検証する 4979
割り当てられた 4979
受け取った 4979
必要はない 4979
恥 4979
左上 4978
▁Har 4977
これ以上 4977
てみよう 4977
を軽減し 4977
▁than 4976
正当化 4976
EG 4974
を克服する 4974
唇 4973
ector 4972
へようこそ 4972
事業を展開し 4972
6,000 4971
ストーブ 4971
原子力発電所 4971
なっていく 4970
ベンチマーク 4970
或いは 4970
蓮 4970
を防止するため 4969
ゲーム内 4969
event 4968
レギュレータ 4967
信じて 4967
業務提携 4967
を創造し 4966
に参加しました 4965
を決定し 4965
下り 4965
イメージング 4963
藻 4963
www 4962
竣工 4962
▁(6) 4961
ふたり 4960
cap 4959
カトリック 4959
大地 4959
宜 4958
本店 4958
が公開されることはありません 4957
スキン 4957
ノーベル 4956
Wengui 4955
▁Gateway 4955
エンコード 4955
受け止め 4955
補給 4955
幹細胞 4954
独立行政法人 4954
ストレート 4953
建てられ 4952
るべきです 4950
世界でも 4950
-06 4949
▁まんだらけ 4949
手のひら 4948
献身 4948
中立 4947
ことがわかった 4946
整合 4946
最悪の 4946
18:00 4945
Trust 4945
収集された 4945
放射性物質 4944
維 4944
hang 4942
自覚 4942
パニック 4941
17:00 4940
注意を払う 4940
足りない 4940
鹿児島 4940
うれしい 4939
利害関係 4939
呼吸器 4939
LSI 4937
というのも 4937
機関投資家 4936
が破損し 4935
ウインドウ 4934
世界初の 4934
停滞 4934
お迎え 4933
を提供することができます 4933
ほぼすべての 4932
銭 4932
隔 4932
高分子 4932
ちょっとした 4931
社会貢献活動 4930
ご紹介します 4929
いませんでした 4928
やすさ 4928
山脈 4928
生命保険 4927
の一員 4926
引き下げ 4926
隣人 4926
電子部品 4926
その場で 4925
アメニティ 4925
就業 4925
ロッカー 4924
入手できます 4924
土木 4924
空中 4924
を提示する 4923
離脱 4923
なければならなかった 4922
を発揮する 4922
公立 4922
知っていた 4922
store 4921
と考えられている 4921
を楽しめます 4921
平均降雨量は 4921
だからです 4920
ミキサー 4920
正確さ 4920
ピザ 4919
ime 4918
に関わ 4918
メトリクス 4918
改変 4918
評議会 4918
ジューシー 4916
仕入れ 4914
続いた 4914
が求められています 4913
の中心地 4913
他のユーザー 4913
に直面する 4912
優良 4912
服を着 4912
殺害 4912
が特徴です 4911
ておりません 4911
を活かして 4911
クレーン 4911
ナチュラル 4911
最適です 4910
高密度 4910
親密な 4909
を踏まえた 4908
交差点 4908
攻撃者 4908
模索 4908
ことができませんでした 4906
発電機 4906
▁first 4905
一回 4905
を修復する 4904
といえます 4902
を行うとともに 4902
ジル 4902
体質 4902
ことになった 4901
最長 4901
cons 4900
▁MODEL 4900
売れ 4900
▁Nash 4899
Flex 4898
を刺激する 4898
卸 4898
マザーボード 4897
日記 4897
よくある 4896
車体 4896
を作成するために 4895
近接 4895
適格 4895
ずれ 4894
堅調 4894
研究分野 4893
MIT 4892
創業者 4892
裏付け 4892
▁Bi 4891
アパレル 4891
提供開始しました 4891
学ぶこと 4890
監査役会 4890
鋳造 4890
殺人 4889
を採用しています 4888
といっても 4887
を期待し 4887
中身 4887
気をつけ 4887
1984 4886
WTO 4886
グルー 4886
不安定な 4886
学内 4886
応募者 4886
産品 4886
▁May 4885
円高 4885
操 4884
を犯し 4883
を抑制する 4881
を最大限に活用 4881
を務めた 4880
簿 4880
カートリッジ 4879
illa 4878
を停止する 4878
ランナー 4877
感性 4877
を処理し 4876
対象外 4875
お会い 4874
インストールされた 4874
▁need 4872
尻 4872
職種 4872
を作りました 4871
概ね 4871
エステ 4870
ボンド 4869
コンクール 4868
▁could 4867
お友達 4866
アドベンチャー 4866
市販 4866
pt 4865
苦痛 4864
dev 4863
円滑に 4863
Safe 4862
にアクセスして 4862
のはなぜですか 4862
中性子 4862
全体的に 4862
1~2 4861
▁本稿では 4860
してくれました 4860
への関心 4860
イエロー 4860
安定供給 4860
仙 4859
TRI 4858
スコットランド 4858
納税 4858
税関 4857
返り 4857
のれん 4856
ャー 4856
ICC 4855
お金を稼ぐ 4855
下記のとおり 4855
瓦 4855
を目的とし 4854
ナム 4854
と考えた 4853
スキャナー 4852
来ている 4852
葛 4852
決定されます 4851
OIST 4850
-07 4849
RSS 4849
▁If 4849
を加速させ 4849
九寨溝 4849
腔 4849
が検出され 4848
SER 4847
mission 4847
が期待できる 4847
コストを削減 4847
特権 4847
送受信 4846
Info 4845
が変化し 4844
高齢 4844
してみる 4843
のひとつです 4843
お名前 4841
が挙げられます 4841
ふり 4841
ニンジン 4841
レアル 4841
ボーン 4840
Ableton 4839
に適合し 4839
までの間 4839
マーケットプレイスである 4839
勃 4839
新幹線 4839
試作 4839
を計算し 4838
ニーズを満たす 4838
提供され 4838
製造工程 4837
経営資源 4836
Laravel 4835
格子 4835
緊 4835
てきています 4834
ナトリウム 4834
差別化 4832
紡 4832
ブレーク 4831
慎 4831
GRA 4830
ガール 4830
ドルにて 4830
モーションエレメンツは 4830
驚くほど 4830
nm 4829
ことを約束 4829
を無視し 4829
サプリメント 4828
を実現しました 4827
も同様に 4826
滞在中 4826
南米 4825
醸成 4825
一種の 4824
大学院大学 4824
風土 4824
OECD 4823
media 4823
出てきた 4823
進んだ 4823
▁South 4821
ワールドカップ 4821
ことを認識し 4820
を維持すること 4820
揚 4820
ステアリング 4819
パシフィック 4819
に対応します 4818
ディスカウント 4818
テレビ番組 4817
書かれている 4817
▁Street 4816
損害について 4816
head 4814
に代わって 4814
▁Firmware 4813
一般社団法人 4813
不正行為 4813
腺 4813
闘争 4813
ラント 4812
功績 4811
PCI 4810
PLC 4810
インターネット上の 4810
古く 4810
濁 4810
ことが必要である 4809
年代後半 4809
簡単にカスタマイズ可能な 4809
MySQL 4807
個人情報の取扱い 4807
動画編集者が 4807
日本橋 4807
ましい 4806
グリル 4806
ジア最大級のロイヤリティーフリー 4804
取り除く 4804
WHO 4803
edit 4803
スーパーマーケット 4802
データ収集 4802
検出器 4802
本プライバシーポリシー 4799
蒸発 4799
頂ける 4799
あきらめ 4798
半数 4798
を引き付ける 4797
女性たち 4797
ラグジュアリー 4794
株主の皆様 4794
受容体 4793
嫁 4793
dB 4792
の一層の 4792
キューバ 4792
当然のこと 4792
招聘 4791
見どころ 4791
▁Travel 4790
ものであること 4790
被災者 4790
たい方 4789
坊 4789
▁Social 4788
圧倒的な 4788
アール 4787
▁Help 4784
▁How 4784
立命館 4784
凍 4783
単体 4783
しまいました 4782
ってしまった 4781
資本金 4781
FPGA 4780
home 4780
レンダー 4778
現れた 4778
航海 4777
をもたらした 4776
全長 4776
Art 4775
化石燃料 4775
を兼ね備え 4774
学習者 4773
高騰 4773
を必要としません 4772
を歓迎する 4772
バリー 4772
税制 4771
を検討してください 4768
ジャカルタ 4768
撮影された 4768
生成される 4767
陵 4767
ホイヤー 4765
光栄 4765
▁Casino 4764
満了 4764
ath 4763
を行わない 4763
標 4763
▁things 4761
Vimeo 4760
停電 4760
hel 4759
コツ 4759
5° 4758
より多く 4758
階級 4758
STAR 4757
公益 4757
撤回 4757
貴方 4757
應 4756
衝 4756
Chrome 4755
レーベル 4755
火星 4755
Scan 4754
▁Conference 4754
発信する 4754
自殺 4754
販売店 4754
一瞬 4753
使いやすさ 4751
どこにでも 4749
本格的に 4749
謀 4749
アット 4748
実施される 4748
標識 4748
督 4748
資質 4748
string 4747
へ行く 4747
アジア諸国 4747
在庫管理 4747
舟 4747
邪 4747
eff 4745
new 4745
十二 4745
ソーセージ 4744
利害関係者 4744
完了後 4743
察 4743
-09 4742
メガネ 4742
形成された 4742
徒 4742
企 4741
先週 4741
En 4740
に専念 4740
チームメンバー 4740
有利 4740
競争力のある 4740
安全かつ 4739
就労 4739
ブーツ 4738
Path 4736
vision 4736
この時期 4736
もたらし 4734
分岐 4734
日頃 4734
発行された 4733
Value 4732
オレ 4732
spec 4731
があっても 4731
についてもっと 4731
フェロー 4731
全然 4731
部材 4731
を操作する 4730
ハッピー 4730
先輩 4729
必然的に 4729
緊急時 4729
いただいている 4728
発光 4728
込める 4727
Kit 4726
いらっしゃ 4726
温室 4726
Electronic 4725
最もよく 4725
酸化物 4725
性疾患 4724
セーフ 4723
裁判官 4723
頂点 4723
金融危機 4721
に会い 4720
ネイル 4720
運搬 4720
Endpoint 4718
重要なのは 4718
5.2 4717
▁Assistant 4717
見つけることができ 4717
帝 4716
1.8 4715
最優秀 4715
を犠牲に 4714
られません 4712
Save 4711
エビ 4711
IEEE 4710
いっそう 4710
とっても 4710
ものもあります 4710
チタン 4710
を損なう 4709
朴 4709
育ち 4709
込んでいる 4709
選択できます 4709
BMW 4708
できなくなる 4708
をオンにします 4708
用量 4707
1976 4706
▁このオプションは 4706
ハンドラ 4706
▁韓国旅行 4705
を節約し 4705
排出削減 4705
機内 4705
を作成するための 4704
を最適化し 4703
現代美術 4703
事柄 4702
服装 4701
ダイナミックな 4698
保育園 4698
始めている 4698
当社ウェブサイト 4697
視覚化 4697
恩恵を受け 4696
不十分な 4695
ヘクタール 4694
install 4693
必要がありました 4693
が大好きです 4691
寝室 4691
明らかな 4691
を認める 4690
char 4689
暗闇 4689
現在まで 4689
禁止されています 4689
を払って 4688
マウンテン 4688
机 4688
限度 4688
1,3 4687
アプリケーションが正しく 4687
償還 4687
8.1 4686
当地 4686
東京オリンピック 4686
Works 4685
の一員として 4684
ゆる 4684
アルファ 4684
フロンティア 4684
▁Vaio 4683
を持たせ 4683
飛んで 4683
抜群 4682
梁 4682
mini 4681
field 4680
経歴 4680
駒 4680
プランニング 4679
従事 4679
LY 4678
HDMI 4677
ていきたいと考えています 4677
を連れて 4677
カメ 4677
宏 4677
コレクター 4676
スムーズな 4675
織物 4675
に占める 4674
らしさ 4674
取れる 4674
▁Cat 4673
ファイルへ変換 4673
事ができます 4673
受けた 4673
累積 4673
ビュッフェ 4672
伝わる 4671
先物 4671
浴場 4671
▁into 4670
がございましたら 4670
ていきたいと思います 4670
姉 4670
Check 4669
TPP 4668
を実装し 4668
マックス 4668
お風呂 4666
ターボ 4666
を見ながら 4665
対策を講じ 4665
記者会見 4665
近年では 4665
を洗う 4664
抽選 4664
虐 4663
▁his 4662
が導入され 4662
してくれ 4662
を設定して 4662
ディン 4662
健康状態 4661
都市部 4659
を調査し 4658
勿 4658
審議会 4658
破棄 4658
▁Archives 4657
を供給し 4657
オペレーティング 4657
専門分野 4657
キヤノン 4655
定量的 4654
▁よくあるご質問 4653
どうなる 4653
問題を抱え 4653
独占的 4653
非公開 4653
を検出する 4652
レクチャー 4652
oku 4651
遊んで 4651
IQ 4650
が実施され 4650
を探しています 4650
ソ連 4650
分ほど 4650
を含んだ 4649
可能性もあります 4649
対外 4649
英語版 4649
郵 4649
が許可され 4648
毛皮 4648
躊躇 4648
修行 4647
時折 4647
望まれ 4647
誕生した 4646
を生成します 4645
ゲレンデ 4645
サービスを利用する 4645
持続可能な社会 4645
DIS 4644
▁Guide 4644
闇 4644
が何であるか 4643
ご遠慮 4643
KDDI 4642
個人消費 4642
ものであった 4640
体温 4640
▁sub 4639
に影響を与えます 4639
プラハ 4639
ユダヤ 4639
OU 4638
ファイルタイプ 4638
予選 4638
紋 4638
してはならない 4636
ことができるようになります 4635
クリニック 4635
鋳 4635
右下 4634
インストールされませんでした 4633
トライアル 4633
そなた 4632
が可能になり 4631
愛知県 4631
が運営する 4630
ARK 4629
ヴィンテージ 4629
取り扱っ 4629
墨 4629
に設定します 4628
描いた 4628
と思っていました 4627
公共交通機関 4627
腹部 4627
釘 4627
VIP 4626
を作成する方法 4625
歪み 4625
治安 4625
いけない 4624
と連携して 4624
を持た 4624
取り消し 4624
絶好の 4624
に切り替える 4623
File 4621
iko 4621
いいね 4621
を予定しています 4621
ジッパー 4621
を表しています 4619
仮想化 4619
を運営し 4618
頻繁な 4618
に設定する 4617
徴収 4616
探す 4616
生産拠点 4616
をインストールします 4615
野外 4615
域内 4613
秋田 4613
ichi 4612
安定的に 4612
ギャンブル 4611
作られる 4611
される場合があります 4610
ミッド 4610
デモンストレーション 4609
木造 4609
稼動 4608
総裁 4607
過ぎる 4606
と言っています 4605
を指し 4605
子供達 4605
oph 4604
しばらくの間 4604
ネックレス 4603
ファイルを回復する 4603
藩 4603
ャ 4601
土台 4601
方法を説明します 4601
1.7 4600
spect 4600
あなたがそれを 4599
ブランディング 4598
を使用しない 4595
海外からの 4595
▁EDUARD 4594
エクスプレス 4594
歌う 4594
を介した 4593
斉 4593
時間をかけて 4593
錬 4593
富山 4592
point 4591
こちらは 4590
一緒 4590
熱意 4589
ファックス 4588
投与量 4588
過失 4588
有効活用 4587
取り上げられ 4586
もあるので 4585
より速く 4585
になっ 4584
告知 4584
上手く 4583
緻 4583
販売台数 4583
近代化 4583
REST 4582
東京都港区 4582
帳簿価額 4580
管理職 4580
▁ACCESSORIES 4579
九州大学 4578
亘 4577
心地よい 4577
知りません 4577
の横に 4576
を比較する 4576
可能であり 4576
JST 4575
一気に 4575
稼働率 4575
を治療する 4574
を破壊し 4574
戯 4574
micro 4573
Office 4572
令和 4571
変容 4571
遺伝的 4570
面白く 4569
を機に 4568
ral 4567
unch 4567
動員 4566
既製の 4566
ことを可能にし 4565
Meta 4563
mor 4563
もたらす 4563
副社長 4563
祖母 4563
あなたの人生 4562
HIV 4561
ことを忘れ 4561
ひどく 4561
和食 4561
集落 4561
JPG 4560
マスタ 4560
cel 4559
ゲームをプレイ 4559
味噌 4559
捜 4559
を選択することができます 4558
利益相反 4558
小麦 4558
ハッカー 4556
定数 4556
漏えい 4556
言うこと 4556
デジタルカメラ 4555
審判 4555
オフィシャル 4553
秘め 4553
通路 4553
を採用した 4552
ファイルをダウンロード 4552
セメント 4551
爽 4551
OG 4550
カ所 4550
振り返り 4550
Server 4549
ロバート 4549
暫定 4549
泳ぐ 4549
実証実験 4548
ないようにしてください 4547
をダウンロードしてください 4547
戦車 4547
新規事業 4547
For 4546
完成品 4546
時間以上 4546
のを助けます 4545
はずだ 4545
見られた 4545
国産 4544
その中でも 4543
を実現するための 4542
を込めて 4542
を定義し 4541
着信 4541
に貢献しています 4540
やりとり 4540
ように見え 4540
変える 4540
劇的に 4539
過半数 4539
mu 4537
上流 4537
第四 4537
ストランド 4536
ルーチン 4536
非常に良い 4536
ZO 4535
叩 4534
成功を収め 4534
法の支配 4534
巡り 4533
市場価格 4533
驚いた 4533
喚起 4532
改造 4532
洗濯機 4530
path 4529
wigs 4529
ウォーク 4529
仕上がり 4528
役割を担っ 4527
ira 4525
マグネシウム 4525
ロウ 4525
力強い 4524
選択されている 4524
理解を深める 4523
電話機 4523
ご宿泊 4522
職場環境 4522
が発生する可能性があります 4519
メリ 4519
沖縄県 4518
緊密な 4518
附 4518
テンポ 4517
民主党 4517
Create 4516
NIC 4516
TOP 4516
が表示されない 4515
ポテンシャル 4515
ことが分かっ 4514
を探る 4514
医療用 4514
手軽に 4514
8,000 4513
PAC 4513
ナレッジ 4513
uji 4512
持ち上げ 4511
法人税 4511
豊かさ 4511
atsu 4510
を防ぎます 4510
ネットワークに接続 4510
ファブリック 4510
並行して 4510
清水 4510
与えられます 4509
願っています 4509
コレ 4508
総領事館 4508
Stream 4507
微小 4507
盆 4507
6.0 4506
rt 4506
に悪影響を及ぼす 4505
近い将来 4505
靴下 4505
SEC 4504
調べる 4504
が掲載され 4503
車輌 4503
に感染し 4502
乳製品 4502
仲裁人 4502
色々 4502
蔽 4502
▁spol 4501
炊 4501
Opera 4500
opt 4500
広域 4500
空手 4500
膨張 4500
アクア 4499
コーディネーター 4499
シリンダー 4499
を受信する 4498
バックエンド 4498
大豆 4498
スリーブ 4497
ログオン 4497
WR 4496
保護されています 4496
強制的に 4496
々しい 4495
打撃 4495
▁この機能は 4494
弁当 4494
最適化された 4494
ona 4493
欠け 4493
を増加させる 4492
NTFS 4491
е 4491
緊密に 4490
1983 4489
を変更して 4488
女王 4487
研究テーマ 4487
開催され 4486
取り外す 4485
取り組んでいる 4485
曝 4485
肯定的な 4484
を深める 4482
ゲット 4482
増えています 4482
疹 4482
輩 4482
の実現に向けて 4481
インストラクター 4481
とのコラボレーション 4480
弧 4480
流量 4480
Gene 4479
RW 4479
anda 4479
フォローアップ 4479
不適切 4478
に到着した 4477
の下部に 4477
データシート 4477
目標達成 4477
玄 4476
謙 4476
を検証し 4475
class 4474
おこなっ 4474
を記念して 4474
セキュリティー 4474
投資信託 4474
バット 4473
車輪 4472
はいけません 4471
有限公司 4471
籍 4471
お申込み 4470
ねじれ 4470
を象徴する 4470
ことをお勧め 4469
わかりやすい 4469
を祝う 4469
東西 4468
費用対効果 4468
を解決し 4467
ダイナミクス 4467
中学生 4467
受け継がれ 4467
心身 4467
に限らず 4466
使いやすく 4466
生理 4466
飲酒 4466
をきっかけに 4465
時間の経過とともに 4465
sky 4464
▁Number 4463
▁本投資法人は 4463
獄 4463
傾向があります 4462
pdf 4461
される予定です 4460
を確認するために 4460
スワップ 4460
豪州 4460
Discover 4459
▁Messag 4459
ブロー 4459
画像処理 4459
を備えている 4458
ヶ国 4457
論じ 4457
を発生させ 4456
平行 4456
樽 4456
山田 4455
決められ 4455
term 4454
¥ 4454
トレーナー 4454
取り除かれ 4454
農産物 4454
が示され 4453
シャンプー 4453
有意義な 4453
非常によく 4453
0.8 4452
痕跡 4452
簡潔 4452
を取ること 4451
充電器 4451
全米 4451
過熱 4451
機密情報 4450
重要であり 4450
Hz 4448
が保証され 4448
ファイルを開くのに十分な 4448
Canon 4445
占有 4445
在留資格 4445
/03/ 4444
Zoom 4444
ワイルド 4444
採択された 4444
預け 4444
が上昇し 4443
たぶん 4443
セキュリティ対策 4443
保たれ 4443
共産主義 4443
ビック 4442
今日まで 4441
染め 4441
鳥取 4441
Dynamic 4439
Maker 4439
ulation 4439
ぁ 4439
初代 4439
綺麗 4439
yl 4438
人々の生活 4437
ワーカー 4436
高等学校 4436
名刺 4435
▁Community 4434
コーラ 4434
戻す 4434
貴重 4434
資本市場 4434
Source 4433
ノック 4433
想定される 4433
と確信しています 4432
をリードし 4432
に力を入れ 4431
低消費電力 4430
法廷 4429
お答え 4428
テキストメッセージ 4428
百万円増加し 4428
を作成しました 4427
顕 4427
á 4426
最前線 4426
ガールフレンド 4423
電球 4423
増加しています 4422
が参加しました 4421
そうではありません 4421
化学品 4421
ことを学ぶ 4420
にて開催 4420
製剤 4420
トリートメント 4419
辱 4419
バイデン 4418
ポケモン 4418
当てはまります 4418
.6. 4417
批評 4416
機械式 4416
開くことができます 4416
働 4415
小売業者 4415
斑 4415
いち早く 4414
ハラスメント 4414
悲劇 4414
意匠 4413
搾 4413
継ぐ 4413
全文 4412
売り上げ 4412
てくれて 4411
を持っていました 4411
がいくつかあります 4408
されるべきである 4408
実現できる 4408
知らず 4408
Document 4407
を構築すること 4406
脱出 4406
密接な 4405
後悔 4405
data 4404
崇拝 4404
バイアス 4403
IEC 4402
▁Press 4402
に貢献できる 4402
ハリウッド 4402
夢中 4402
http 4401
に追加します 4401
ようお願いいたします 4401
何故 4401
有形固定資産 4401
治癒 4401
create 4400
無数の 4400
ョン 4399
乾いた 4399
妖 4399
科学研究所 4399
に違反する 4398
クイズ 4398
連帯 4398
反復 4396
考古学 4396
身に着け 4396
バリューチェーン 4395
Run 4394
plan 4394
タイムズ 4394
増減 4394
core 4393
を守っ 4393
合弁会社 4392
0.9 4391
に関係する 4391
時間を短縮 4391
圧倒的 4390
製造元 4390
白色 4389
共用 4388
分担 4387
MENT 4386
不可能である 4386
看護師 4386
自動車用 4386
頭部 4386
高橋 4386
今般 4385
利息 4385
整数 4385
縫製 4385
Hoimi 4383
▁無料オンライン 4383
を購入すること 4383
総称 4383
示される 4382
重大 4382
ORI 4380
テクノ 4380
ヴェル 4380
殆ど 4380
ラッキー 4379
過ごせ 4379
ウィリアム 4378
ウェスト 4378
宇宙飛行士 4378
メッセンジャー 4377
歪 4377
のは簡単です 4376
オーガズム 4376
フジ 4376
記念日 4376
Config 4375
IES 4375
を理解するために 4375
不正アクセス 4375
賛成 4375
さまざま 4374
star 4373
ここ数年 4373
0.4 4371
処遇 4371
役立っ 4371
歩行 4371
Azure 4370
▁then 4370
ことが多く 4370
置かれた 4370
中庭 4369
冬季 4369
を定義します 4368
4.3 4367
討議 4367
▁Russia 4366
出版社 4366
基本的な考え方 4366
目に見える 4366
メロディ 4365
当店 4365
終わって 4365
arm 4364
労働組合 4364
対価 4364
添加剤 4364
▁Kii 4363
薄膜 4363
スライダー 4362
BlackBerry 4361
フォール 4361
会を開催 4361
固有 4361
独特な 4361
Voice 4360
征服 4360
当選 4357
減収 4357
Integr 4356
▁Forms 4356
マラリア 4356
大和 4356
しようとした 4355
につきまして 4355
グローブ 4355
都道府県 4355
可変 4354
眼鏡 4354
LU 4353
に置き換える 4353
を見つけるでしょう 4353
菊 4353
国際映画祭 4352
濃厚 4352
モノづくり 4351
山頂 4351
趣 4351
1982 4348
ことのできない 4348
抱え 4348
日系企業 4348
最も有名な 4348
音質 4348
を追加することができます 4347
驚か 4346
アクティベーション 4345
奉 4344
届かない 4344
ody 4342
カリウム 4342
駅から徒歩 4342
つずつ 4341
ニーズに応える 4341
ポリオ 4341
高額 4341
はほとんどありません 4340
粋 4339
etc 4338
を防ぐため 4338
ピル 4338
立たせ 4338
骨格 4338
Dropbox 4337
▁ここを見て 4337
リソースを持っていません 4337
世界で初めて 4337
NHK 4336
気づか 4336
法規制 4336
貨幣 4336
噛 4335
境内 4335
Journal 4334
MSC 4333
禁忌 4333
苦しむ 4333
視線 4333
ぽ 4332
不利な 4332
底部 4332
Power 4331
ていこう 4330
舞踊 4330
SaaS 4329
重み 4329
重要な役割 4329
body 4328
direct 4328
▁India 4328
を設ける 4328
プラクティス 4328
開口部 4328
1/3 4327
容易な 4327
証書 4327
▁Learn 4326
五輪 4326
ブラザー 4325
ボタンをクリックする 4325
倍以上 4325
不幸 4324
一貫 4323
基幹 4323
つくり 4322
外相 4322
▁America 4321
産生 4321
電話をかけ 4321
を目標とし 4320
悪用 4320
のが最善です 4319
をタップする 4319
住んで 4319
常勤 4319
ホイミ 4317
の数々 4316
進んでいます 4316
が低下する 4315
境界線 4315
アプリ内 4314
支払い方法 4312
アジェンダ 4310
休息 4310
密着 4310
揃って 4310
沙 4309
通勤 4309
議定書 4308
杭 4307
消失 4307
に設置された 4306
持っています 4306
事務総長 4305
工業用 4305
それ以前 4304
霜 4304
蒸留 4303
ジャム 4301
凝縮 4301
お気軽にお問い合わせください 4300
驚く 4300
comment 4299
ペアリング 4299
剛性 4299
条件下で 4299
確立された 4299
冗談 4298
避難所 4298
Unreal 4297
▁あなたのコンピュータは現在 4297
インシデント 4297
モンテ 4297
感情的な 4297
歓 4297
▁actually 4296
を追跡する 4296
やすくなります 4294
熟成 4294
アンカー 4293
賢明 4293
プロデュース 4292
信じている 4292
半径 4292
寛容 4292
補強 4292
シャツマーケット 4291
▁Meetings 4290
コロナ禍 4290
帰還 4290
格付け 4290
赤色 4290
なんか 4289
が評価され 4288
ご自身 4288
要件を満たし 4288
養殖 4287
Movie 4286
が楽しめます 4286
屋上 4286
1981 4285
を可能とする 4284
何らかの理由で 4284
堅調に推移 4284
職務の執行 4284
酸性 4282
▁something 4281
老舗 4281
.12. 4279
に入ら 4279
グラフィカル 4279
ライフサイエンス 4279
囚 4279
応力 4278
真ん中 4278
認証を取得 4278
ua 4277
スマートフォンやタブレット 4277
稿 4277
かどうかを確認する 4276
ムーン 4276
国防 4276
委託先 4276
振る舞い 4276
に大きな影響を与え 4273
を観察する 4273
ベーキング 4273
うえ 4272
乙 4272
被告 4271
販売価格 4271
足元 4271
パルプ 4270
聞こえる 4269
.11. 4268
McAfee 4268
size 4267
タイムアウト 4267
ニッチ 4267
努め 4267
▁Followers 4266
ドゥー 4266
原動力 4266
WIN 4265
asu 4265
厄 4265
多額の 4265
チャリティ 4264
パレード 4264
▁Camp 4263
崩 4263
虎 4263
berg 4262
これだけ 4262
を経由して 4262
自動車部品 4262
Count 4261
Color 4260
の背後にある 4260
クリエイティブな 4260
ビジネスパートナー 4259
映画館 4259
ためだけに 4258
亜鉛 4258
持続的な成長 4258
製造プロセス 4258
主任 4256
円滑な 4256
捕虜 4256
eck 4255
満たす 4255
刷 4254
群れ 4254
▁Developer 4253
数日間 4253
本番 4253
環境に優しい 4253
首都圏 4253
ony 4252
トップクラスの 4252
今のところ 4252
大阪市 4252
斬 4252
掲示 4251
すべ 4250
になってしまう 4250
海賊 4250
著作権フリー音楽 4250
Society 4249
は非常に簡単です 4249
value 4248
所得税 4248
衣類 4248
▁Reader 4247
を勉強し 4247
簡単かつ 4247
間違っている 4247
に至った 4246
漏 4246
環境変数 4246
要求事項 4245
▁Yu 4244
大きく異なる 4244
潰 4244
逃 4244
istic 4243
▁としてダウンロードしてください 4243
温水 4243
電子書籍 4243
を育成する 4242
個室 4242
検定 4242
私たちにとって 4242
大西洋 4240
専門学校 4240
▁Index 4239
聖なる 4239
肥満 4239
1978 4238
アジャイル 4238
進んでい 4238
石膏 4237
▁Forum 4236
優先度 4235
微妙な 4235
order 4234
▁Education 4234
▁say 4234
硫黄 4234
▁France 4233
を持っていて 4233
尽 4233
目安 4233
race 4232
一生懸命 4231
CAM 4230
INA 4230
照会 4230
計画を立て 4230
跳 4230
1979 4229
自動車産業 4229
Xi 4228
がついてい 4228
トリップ 4228
大聖堂 4228
ペルー 4227
温め 4227
お知らせください 4226
ili 4225
twatches 4225
を得ることができ 4225
以前のバージョン 4225
助教 4225
落ち着いて 4225
を隠す 4224
ウェン 4224
約款 4224
Type 4223
当社取締役会 4223
水曜日 4223
ことが期待されます 4222
酵母 4222
工作機械 4221
資格情報 4220
nu 4219
メッキ 4219
傷害 4219
喧 4219
絶望 4219
地下水 4218
治験 4218
鉢 4218
雇用者 4218
醸 4217
浅い 4216
撮った 4215
最も頻繁に 4215
に分けて 4214
追加料金 4214
人もいる 4212
健康保険 4212
結び付け 4212
締め付け 4211
戦術 4210
診療所 4210
近くにある 4210
▁Mini 4209
が必要であり 4209
を拒否する 4209
著作権法 4208
親しまれ 4208
朱 4207
▁10.18.10. 4206
不在 4206
につながる可能性があります 4205
扇 4204
state 4203
自衛隊 4203
メタン 4202
嘉 4202
虹 4202
Publish 4201
に行か 4201
受容 4201
FAQ 4200
ツーリズム 4200
▁Partition 4199
うつ病 4199
を増し 4199
コメディ 4199
中心的な 4199
太陽系 4199
セーフティ 4198
宮崎 4198
運輸 4198
ju 4197
▁did 4197
に目を向け 4197
Manage 4196
に設定されている 4196
於 4196
障がい者 4196
寂 4195
トレイル 4194
南極 4194
牧師 4194
heng 4193
ことに注意 4193
といわれる 4193
ジョイント 4193
フェルト 4192
受け入れる 4192
活動を展開 4192
バイパス 4191
地域住民 4191
を満たすために 4190
ショウ 4190
▁Paper 4189
ますようお願い申し上げます 4189
Channel 4188
ヤード 4188
局長 4187
所要時間 4187
を終えた 4185
フェンス 4185
バレル 4184
署 4184
▁There 4183
ポリエステル 4183
僕ら 4183
Off 4182
沸騰させ 4182
サーキット 4181
埋め込まれ 4180
アンモニア 4179
LCD 4178
コロナウイルス 4178
外務大臣 4178
方程式 4178
メーリングリスト 4177
亡くなった 4177
抹茶 4176
最大規模の 4175
▁ミニッツ 4174
知らなかった 4174
ファイルへの変換 4173
栓 4172
ごみ箱 4171
歌手 4171
輸 4171
インタラクション 4170
グリップ 4170
遂 4170
聴き 4169
FTA 4168
apt 4168
▁Africa 4168
滋 4168
ぴったり 4167
▁詳しくはこちら 4166
とみなされます 4166
チョン 4166
のんびり 4165
マージン 4165
Sync 4163
▁Hub 4163
搬 4163
umi 4162
メット 4162
含み 4162
聞いたこと 4162
6.5 4161
の作り方 4161
別名 4160
ルーマニア 4159
蘇州 4159
たばこ 4158
と提携し 4158
グランプリ 4158
偽造 4158
贅沢 4158
▁本研究では 4157
メッセージを送信 4157
Instrument 4156
▁Mil 4156
剖 4153
頂け 4153
去り 4152
経理 4152
なってしまいます 4151
アレイ 4150
告白 4150
語彙 4150
が可能になる 4149
じっくり 4148
を予測する 4148
に代わる 4147
渋滞 4147
HER 4146
に配慮した 4146
ヒーター 4146
減少しました 4146
導かれ 4145
解凍 4145
リージョン 4144
傘下 4144
を訪ね 4143
ゲイン 4143
ノートブック 4143
人材の育成 4143
早めに 4143
CHE 4142
亀裂 4142
掲示板 4142
諮問 4142
を研究し 4141
価値創造 4141
瞬時に 4141
JAEA 4140
▁Our 4140
陛下 4140
を払う 4139
マイナー 4139
学べる 4139
POP 4138
を刺激し 4138
伊勢 4138
チューニング 4137
次のいずれか 4137
引き換え 4136
注意点 4136
一旦 4135
忘れられない 4135
逃れ 4135
ガイ 4134
禁じられ 4134
Ref 4133
コンペティション 4133
子育て 4133
便宜 4132
ODA 4131
ご利用いただける 4131
込ま 4131
ことは不可能 4130
を交換し 4130
届いた 4130
集められ 4130
に該当し 4129
が報告され 4128
パイオニア 4128
self 4127
ワンストップ 4127
活かす 4127
転職 4127
グラフィー 4125
和歌山 4125
len 4124
機会を与え 4124
▁Customer 4123
シーフード 4123
傾向がある 4123
切削 4122
を持っていません 4121
ワニス 4121
峡 4121
も含めた 4120
7.5 4119
agon 4119
のなかに 4119
形成される 4119
社会保障 4119
助成金 4117
横浜市 4117
を模索し 4116
何卒 4116
畜 4115
Controller 4114
お預かり 4114
残留 4114
虚偽 4114
先祖 4113
種々の 4113
ITY 4112
Slack 4112
を強め 4112
で推移し 4111
ロードマップ 4110
尋ねた 4110
続けてきた 4110
Inter 4109
Xbox 4109
売り切れ 4109
家畜 4109
往復 4109
浮かぶ 4109
減損損失 4109
田さん 4109
park 4108
わけではなく 4108
をもった 4108
商人 4108
解雇 4108
いらっしゃる 4107
に反する 4107
セブン 4107
疑わしい 4107
スピーディ 4106
貯蓄 4106
Human 4105
こども 4105
断層 4105
廷 4104
いのち 4103
研究院 4103
待た 4102
振り返る 4102
▁Atomic 4101
無断 4101
老化 4101
ハイエンド 4099
紛失した 4099
に問題がある 4098
を表示できます 4098
ビルダー 4096
大人気 4096
団結 4095
豆腐 4095
All 4094
tivity 4094
に富んだ 4094
エナメル 4094
持続可能 4094
トランプ大統領 4093
笠 4093
厳格 4092
時間と分 4092
経常 4090
豪華 4090
募 4089
度合い 4089
引き受け 4089
事務局長 4088
官民 4088
自分達 4088
XenServer 4087
会社法第 4087
日本語版 4087
プライム 4086
吐 4086
1,4 4085
David 4085
を生産する 4085
エンコーダ 4085
引き上げる 4085
いいえ 4084
つだけ 4084
厚生労働省 4084
細心の注意 4084
を最小限に抑え 4083
将軍 4083
握り 4083
おっしゃ 4082
ことを恐れ 4082
ピック 4082
廊下 4082
直感的な 4082
輝度 4081
布地 4080
連鎖 4080
バーベキュー 4079
失望 4079
態勢 4079
港湾 4079
ではありますが 4077
を招く 4077
を防ぎ 4077
命名 4077
眉 4077
ていきましょう 4075
アルバイト 4075
メールにて 4075
max 4074
当社株式 4074
贅沢な 4074
東京都千代田区 4073
兵庫県 4072
マイページ 4071
衡 4071
宮城県 4070
ソール 4069
医療従事者 4069
JPEG 4068
せよ 4068
を聴く 4068
企業価値の向上 4068
を報告し 4066
火曜日 4065
効率よく 4064
意向 4064
丸紅 4063
外来 4063
遷 4063
PNG 4062
を始めとする 4062
猛 4062
原稿 4061
java 4060
▁Visa 4060
▁京商 4060
を登録し 4060
千葉県 4060
通行 4060
Electr 4058
が装備され 4058
レター 4058
共同作業 4058
を担って 4057
General 4056
vil 4056
を詳細に 4055
予防接種 4053
段階的に 4053
生命科学 4053
connect 4051
イスラム教徒 4051
人件費 4051
作曲家 4050
sheet 4048
家賃 4048
[...]
